{
  "version": "1.0",
  "truncation": {
    "direction": "Right",
    "max_length": 512,
    "strategy": "LongestFirst",
    "stride": 0
  },
  "padding": {
    "strategy": {
      "Fixed": 512
    },
    "direction": "Right",
    "pad_to_multiple_of": null,
    "pad_id": 0,
    "pad_type_id": 0,
    "pad_token": "<pad>"
  },
  "added_tokens": [
    {
      "id": 0,
      "content": "<pad>",
      "single_word": false,
      "lstrip": false,
      "rstrip": false,
      "normalized": false,
      "special": true
    },
    {
      "id": 1,
      "content": "</s>",
      "single_word": false,
      "lstrip": false,
      "rstrip": false,
      "normalized": false,
      "special": true
    },
    {
      "id": 2,
      "content": "<unk>",
      "single_word": false,
      "lstrip": false,
      "rstrip": false,
      "normalized": false,
      "special": true
    },
    {
      "id": 32000,
      "content": "<extra_id_0>",
      "single_word": false,
      "lstrip": false,
      "rstrip": false,
      "normalized": false,
      "special": true
    },
    {
      "id": 32001,
      "content": "<extra_id_1>",
      "single_word": false,
      "lstrip": false,
      "rstrip": false,
      "normalized": false,
      "special": true
    },
    {
      "id": 32002,
      "content": "<extra_id_2>",
      "single_word": false,
      "lstrip": false,
      "rstrip": false,
      "normalized": false,
      "special": true
    },
    {
      "id": 32003,
      "content": "<extra_id_3>",
      "single_word": false,
      "lstrip": false,
      "rstrip": false,
      "normalized": false,
      "special": true
    },
    {
      "id": 32004,
      "content": "<extra_id_4>",
      "single_word": false,
      "lstrip": false,
      "rstrip": false,
      "normalized": false,
      "special": true
    },
    {
      "id": 32005,
      "content": "<extra_id_5>",
      "single_word": false,
      "lstrip": false,
      "rstrip": false,
      "normalized": false,
      "special": true
    },
    {
      "id": 32006,
      "content": "<extra_id_6>",
      "single_word": false,
      "lstrip": false,
      "rstrip": false,
      "normalized": false,
      "special": true
    },
    {
      "id": 32007,
      "content": "<extra_id_7>",
      "single_word": false,
      "lstrip": false,
      "rstrip": false,
      "normalized": false,
      "special": true
    },
    {
      "id": 32008,
      "content": "<extra_id_8>",
      "single_word": false,
      "lstrip": false,
      "rstrip": false,
      "normalized": false,
      "special": true
    },
    {
      "id": 32009,
      "content": "<extra_id_9>",
      "single_word": false,
      "lstrip": false,
      "rstrip": false,
      "normalized": false,
      "special": true
    },
    {
      "id": 32010,
      "content": "<extra_id_10>",
      "single_word": false,
      "lstrip": false,
      "rstrip": false,
      "normalized": false,
      "special": true
    },
    {
      "id": 32011,
      "content": "<extra_id_11>",
      "single_word": false,
      "lstrip": false,
      "rstrip": false,
      "normalized": false,
      "special": true
    },
    {
      "id": 32012,
      "content": "<extra_id_12>",
      "single_word": false,
      "lstrip": false,
      "rstrip": false,
      "normalized": false,
      "special": true
    },
    {
      "id": 32013,
      "content": "<extra_id_13>",
      "single_word": false,
      "lstrip": false,
      "rstrip": false,
      "normalized": false,
      "special": true
    },
    {
      "id": 32014,
      "content": "<extra_id_14>",
      "single_word": false,
      "lstrip": false,
      "rstrip": false,
      "normalized": false,
      "special": true
    },
    {
      "id": 32015,
      "content": "<extra_id_15>",
      "single_word": false,
      "lstrip": false,
      "rstrip": false,
      "normalized": false,
      "special": true
    },
    {
      "id": 32016,
      "content": "<extra_id_16>",
      "single_word": false,
      "lstrip": false,
      "rstrip": false,
      "normalized": false,
      "special": true
    },
    {
      "id": 32017,
      "content": "<extra_id_17>",
      "single_word": false,
      "lstrip": false,
      "rstrip": false,
      "normalized": false,
      "special": true
    },
    {
      "id": 32018,
      "content": "<extra_id_18>",
      "single_word": false,
      "lstrip": false,
      "rstrip": false,
      "normalized": false,
      "special": true
    },
    {
      "id": 32019,
      "content": "<extra_id_19>",
      "single_word": false,
      "lstrip": false,
      "rstrip": false,
      "normalized": false,
      "special": true
    },
    {
      "id": 32020,
      "content": "<extra_id_20>",
      "single_word": false,
      "lstrip": false,
      "rstrip": false,
      "normalized": false,
      "special": true
    },
    {
      "id": 32021,
      "content": "<extra_id_21>",
      "single_word": false,
      "lstrip": false,
      "rstrip": false,
      "normalized": false,
      "special": true
    },
    {
      "id": 32022,
      "content": "<extra_id_22>",
      "single_word": false,
      "lstrip": false,
      "rstrip": false,
      "normalized": false,
      "special": true
    },
    {
      "id": 32023,
      "content": "<extra_id_23>",
      "single_word": false,
      "lstrip": false,
      "rstrip": false,
      "normalized": false,
      "special": true
    },
    {
      "id": 32024,
      "content": "<extra_id_24>",
      "single_word": false,
      "lstrip": false,
      "rstrip": false,
      "normalized": false,
      "special": true
    },
    {
      "id": 32025,
      "content": "<extra_id_25>",
      "single_word": false,
      "lstrip": false,
      "rstrip": false,
      "normalized": false,
      "special": true
    },
    {
      "id": 32026,
      "content": "<extra_id_26>",
      "single_word": false,
      "lstrip": false,
      "rstrip": false,
      "normalized": false,
      "special": true
    },
    {
      "id": 32027,
      "content": "<extra_id_27>",
      "single_word": false,
      "lstrip": false,
      "rstrip": false,
      "normalized": false,
      "special": true
    },
    {
      "id": 32028,
      "content": "<extra_id_28>",
      "single_word": false,
      "lstrip": false,
      "rstrip": false,
      "normalized": false,
      "special": true
    },
    {
      "id": 32029,
      "content": "<extra_id_29>",
      "single_word": false,
      "lstrip": false,
      "rstrip": false,
      "normalized": false,
      "special": true
    },
    {
      "id": 32030,
      "content": "<extra_id_30>",
      "single_word": false,
      "lstrip": false,
      "rstrip": false,
      "normalized": false,
      "special": true
    },
    {
      "id": 32031,
      "content": "<extra_id_31>",
      "single_word": false,
      "lstrip": false,
      "rstrip": false,
      "normalized": false,
      "special": true
    },
    {
      "id": 32032,
      "content": "<extra_id_32>",
      "single_word": false,
      "lstrip": false,
      "rstrip": false,
      "normalized": false,
      "special": true
    },
    {
      "id": 32033,
      "content": "<extra_id_33>",
      "single_word": false,
      "lstrip": false,
      "rstrip": false,
      "normalized": false,
      "special": true
    },
    {
      "id": 32034,
      "content": "<extra_id_34>",
      "single_word": false,
      "lstrip": false,
      "rstrip": false,
      "normalized": false,
      "special": true
    },
    {
      "id": 32035,
      "content": "<extra_id_35>",
      "single_word": false,
      "lstrip": false,
      "rstrip": false,
      "normalized": false,
      "special": true
    },
    {
      "id": 32036,
      "content": "<extra_id_36>",
      "single_word": false,
      "lstrip": false,
      "rstrip": false,
      "normalized": false,
      "special": true
    },
    {
      "id": 32037,
      "content": "<extra_id_37>",
      "single_word": false,
      "lstrip": false,
      "rstrip": false,
      "normalized": false,
      "special": true
    },
    {
      "id": 32038,
      "content": "<extra_id_38>",
      "single_word": false,
      "lstrip": false,
      "rstrip": false,
      "normalized": false,
      "special": true
    },
    {
      "id": 32039,
      "content": "<extra_id_39>",
      "single_word": false,
      "lstrip": false,
      "rstrip": false,
      "normalized": false,
      "special": true
    },
    {
      "id": 32040,
      "content": "<extra_id_40>",
      "single_word": false,
      "lstrip": false,
      "rstrip": false,
      "normalized": false,
      "special": true
    },
    {
      "id": 32041,
      "content": "<extra_id_41>",
      "single_word": false,
      "lstrip": false,
      "rstrip": false,
      "normalized": false,
      "special": true
    },
    {
      "id": 32042,
      "content": "<extra_id_42>",
      "single_word": false,
      "lstrip": false,
      "rstrip": false,
      "normalized": false,
      "special": true
    },
    {
      "id": 32043,
      "content": "<extra_id_43>",
      "single_word": false,
      "lstrip": false,
      "rstrip": false,
      "normalized": false,
      "special": true
    },
    {
      "id": 32044,
      "content": "<extra_id_44>",
      "single_word": false,
      "lstrip": false,
      "rstrip": false,
      "normalized": false,
      "special": true
    },
    {
      "id": 32045,
      "content": "<extra_id_45>",
      "single_word": false,
      "lstrip": false,
      "rstrip": false,
      "normalized": false,
      "special": true
    },
    {
      "id": 32046,
      "content": "<extra_id_46>",
      "single_word": false,
      "lstrip": false,
      "rstrip": false,
      "normalized": false,
      "special": true
    },
    {
      "id": 32047,
      "content": "<extra_id_47>",
      "single_word": false,
      "lstrip": false,
      "rstrip": false,
      "normalized": false,
      "special": true
    },
    {
      "id": 32048,
      "content": "<extra_id_48>",
      "single_word": false,
      "lstrip": false,
      "rstrip": false,
      "normalized": false,
      "special": true
    },
    {
      "id": 32049,
      "content": "<extra_id_49>",
      "single_word": false,
      "lstrip": false,
      "rstrip": false,
      "normalized": false,
      "special": true
    },
    {
      "id": 32050,
      "content": "<extra_id_50>",
      "single_word": false,
      "lstrip": false,
      "rstrip": false,
      "normalized": false,
      "special": true
    },
    {
      "id": 32051,
      "content": "<extra_id_51>",
      "single_word": false,
      "lstrip": false,
      "rstrip": false,
      "normalized": false,
      "special": true
    },
    {
      "id": 32052,
      "content": "<extra_id_52>",
      "single_word": false,
      "lstrip": false,
      "rstrip": false,
      "normalized": false,
      "special": true
    },
    {
      "id": 32053,
      "content": "<extra_id_53>",
      "single_word": false,
      "lstrip": false,
      "rstrip": false,
      "normalized": false,
      "special": true
    },
    {
      "id": 32054,
      "content": "<extra_id_54>",
      "single_word": false,
      "lstrip": false,
      "rstrip": false,
      "normalized": false,
      "special": true
    },
    {
      "id": 32055,
      "content": "<extra_id_55>",
      "single_word": false,
      "lstrip": false,
      "rstrip": false,
      "normalized": false,
      "special": true
    },
    {
      "id": 32056,
      "content": "<extra_id_56>",
      "single_word": false,
      "lstrip": false,
      "rstrip": false,
      "normalized": false,
      "special": true
    },
    {
      "id": 32057,
      "content": "<extra_id_57>",
      "single_word": false,
      "lstrip": false,
      "rstrip": false,
      "normalized": false,
      "special": true
    },
    {
      "id": 32058,
      "content": "<extra_id_58>",
      "single_word": false,
      "lstrip": false,
      "rstrip": false,
      "normalized": false,
      "special": true
    },
    {
      "id": 32059,
      "content": "<extra_id_59>",
      "single_word": false,
      "lstrip": false,
      "rstrip": false,
      "normalized": false,
      "special": true
    },
    {
      "id": 32060,
      "content": "<extra_id_60>",
      "single_word": false,
      "lstrip": false,
      "rstrip": false,
      "normalized": false,
      "special": true
    },
    {
      "id": 32061,
      "content": "<extra_id_61>",
      "single_word": false,
      "lstrip": false,
      "rstrip": false,
      "normalized": false,
      "special": true
    },
    {
      "id": 32062,
      "content": "<extra_id_62>",
      "single_word": false,
      "lstrip": false,
      "rstrip": false,
      "normalized": false,
      "special": true
    },
    {
      "id": 32063,
      "content": "<extra_id_63>",
      "single_word": false,
      "lstrip": false,
      "rstrip": false,
      "normalized": false,
      "special": true
    },
    {
      "id": 32064,
      "content": "<extra_id_64>",
      "single_word": false,
      "lstrip": false,
      "rstrip": false,
      "normalized": false,
      "special": true
    },
    {
      "id": 32065,
      "content": "<extra_id_65>",
      "single_word": false,
      "lstrip": false,
      "rstrip": false,
      "normalized": false,
      "special": true
    },
    {
      "id": 32066,
      "content": "<extra_id_66>",
      "single_word": false,
      "lstrip": false,
      "rstrip": false,
      "normalized": false,
      "special": true
    },
    {
      "id": 32067,
      "content": "<extra_id_67>",
      "single_word": false,
      "lstrip": false,
      "rstrip": false,
      "normalized": false,
      "special": true
    },
    {
      "id": 32068,
      "content": "<extra_id_68>",
      "single_word": false,
      "lstrip": false,
      "rstrip": false,
      "normalized": false,
      "special": true
    },
    {
      "id": 32069,
      "content": "<extra_id_69>",
      "single_word": false,
      "lstrip": false,
      "rstrip": false,
      "normalized": false,
      "special": true
    },
    {
      "id": 32070,
      "content": "<extra_id_70>",
      "single_word": false,
      "lstrip": false,
      "rstrip": false,
      "normalized": false,
      "special": true
    },
    {
      "id": 32071,
      "content": "<extra_id_71>",
      "single_word": false,
      "lstrip": false,
      "rstrip": false,
      "normalized": false,
      "special": true
    },
    {
      "id": 32072,
      "content": "<extra_id_72>",
      "single_word": false,
      "lstrip": false,
      "rstrip": false,
      "normalized": false,
      "special": true
    },
    {
      "id": 32073,
      "content": "<extra_id_73>",
      "single_word": false,
      "lstrip": false,
      "rstrip": false,
      "normalized": false,
      "special": true
    },
    {
      "id": 32074,
      "content": "<extra_id_74>",
      "single_word": false,
      "lstrip": false,
      "rstrip": false,
      "normalized": false,
      "special": true
    },
    {
      "id": 32075,
      "content": "<extra_id_75>",
      "single_word": false,
      "lstrip": false,
      "rstrip": false,
      "normalized": false,
      "special": true
    },
    {
      "id": 32076,
      "content": "<extra_id_76>",
      "single_word": false,
      "lstrip": false,
      "rstrip": false,
      "normalized": false,
      "special": true
    },
    {
      "id": 32077,
      "content": "<extra_id_77>",
      "single_word": false,
      "lstrip": false,
      "rstrip": false,
      "normalized": false,
      "special": true
    },
    {
      "id": 32078,
      "content": "<extra_id_78>",
      "single_word": false,
      "lstrip": false,
      "rstrip": false,
      "normalized": false,
      "special": true
    },
    {
      "id": 32079,
      "content": "<extra_id_79>",
      "single_word": false,
      "lstrip": false,
      "rstrip": false,
      "normalized": false,
      "special": true
    },
    {
      "id": 32080,
      "content": "<extra_id_80>",
      "single_word": false,
      "lstrip": false,
      "rstrip": false,
      "normalized": false,
      "special": true
    },
    {
      "id": 32081,
      "content": "<extra_id_81>",
      "single_word": false,
      "lstrip": false,
      "rstrip": false,
      "normalized": false,
      "special": true
    },
    {
      "id": 32082,
      "content": "<extra_id_82>",
      "single_word": false,
      "lstrip": false,
      "rstrip": false,
      "normalized": false,
      "special": true
    },
    {
      "id": 32083,
      "content": "<extra_id_83>",
      "single_word": false,
      "lstrip": false,
      "rstrip": false,
      "normalized": false,
      "special": true
    },
    {
      "id": 32084,
      "content": "<extra_id_84>",
      "single_word": false,
      "lstrip": false,
      "rstrip": false,
      "normalized": false,
      "special": true
    },
    {
      "id": 32085,
      "content": "<extra_id_85>",
      "single_word": false,
      "lstrip": false,
      "rstrip": false,
      "normalized": false,
      "special": true
    },
    {
      "id": 32086,
      "content": "<extra_id_86>",
      "single_word": false,
      "lstrip": false,
      "rstrip": false,
      "normalized": false,
      "special": true
    },
    {
      "id": 32087,
      "content": "<extra_id_87>",
      "single_word": false,
      "lstrip": false,
      "rstrip": false,
      "normalized": false,
      "special": true
    },
    {
      "id": 32088,
      "content": "<extra_id_88>",
      "single_word": false,
      "lstrip": false,
      "rstrip": false,
      "normalized": false,
      "special": true
    },
    {
      "id": 32089,
      "content": "<extra_id_89>",
      "single_word": false,
      "lstrip": false,
      "rstrip": false,
      "normalized": false,
      "special": true
    },
    {
      "id": 32090,
      "content": "<extra_id_90>",
      "single_word": false,
      "lstrip": false,
      "rstrip": false,
      "normalized": false,
      "special": true
    },
    {
      "id": 32091,
      "content": "<extra_id_91>",
      "single_word": false,
      "lstrip": false,
      "rstrip": false,
      "normalized": false,
      "special": true
    },
    {
      "id": 32092,
      "content": "<extra_id_92>",
      "single_word": false,
      "lstrip": false,
      "rstrip": false,
      "normalized": false,
      "special": true
    },
    {
      "id": 32093,
      "content": "<extra_id_93>",
      "single_word": false,
      "lstrip": false,
      "rstrip": false,
      "normalized": false,
      "special": true
    },
    {
      "id": 32094,
      "content": "<extra_id_94>",
      "single_word": false,
      "lstrip": false,
      "rstrip": false,
      "normalized": false,
      "special": true
    },
    {
      "id": 32095,
      "content": "<extra_id_95>",
      "single_word": false,
      "lstrip": false,
      "rstrip": false,
      "normalized": false,
      "special": true
    },
    {
      "id": 32096,
      "content": "<extra_id_96>",
      "single_word": false,
      "lstrip": false,
      "rstrip": false,
      "normalized": false,
      "special": true
    },
    {
      "id": 32097,
      "content": "<extra_id_97>",
      "single_word": false,
      "lstrip": false,
      "rstrip": false,
      "normalized": false,
      "special": true
    },
    {
      "id": 32098,
      "content": "<extra_id_98>",
      "single_word": false,
      "lstrip": false,
      "rstrip": false,
      "normalized": false,
      "special": true
    },
    {
      "id": 32099,
      "content": "<extra_id_99>",
      "single_word": false,
      "lstrip": false,
      "rstrip": false,
      "normalized": false,
      "special": true
    }
  ],
  "normalizer": null,
  "pre_tokenizer": {
    "type": "Sequence",
    "pretokenizers": [
      {
        "type": "WhitespaceSplit"
      },
      {
        "type": "Metaspace",
        "replacement": "▁",
        "prepend_scheme": "always",
        "split": true
      }
    ]
  },
  "post_processor": {
    "type": "TemplateProcessing",
    "single": [
      {
        "Sequence": {
          "id": "A",
          "type_id": 0
        }
      },
      {
        "SpecialToken": {
          "id": "</s>",
          "type_id": 0
        }
      }
    ],
    "pair": [
      {
        "Sequence": {
          "id": "A",
          "type_id": 0
        }
      },
      {
        "SpecialToken": {
          "id": "</s>",
          "type_id": 0
        }
      },
      {
        "Sequence": {
          "id": "B",
          "type_id": 0
        }
      },
      {
        "SpecialToken": {
          "id": "</s>",
          "type_id": 0
        }
      }
    ],
    "special_tokens": {
      "</s>": {
        "id": "</s>",
        "ids": [
          1
        ],
        "tokens": [
          "</s>"
        ]
      }
    }
  },
  "decoder": {
    "type": "Metaspace",
    "replacement": "▁",
    "prepend_scheme": "always",
    "split": true
  },
  "model": {
    "type": "Unigram",
    "unk_id": 2,
    "vocab": [
      [
        "<pad>",
        0.0
      ],
      [
        "</s>",
        0.0
      ],
      [
        "<unk>",
        0.0
      ],
      [
        ".",
        -3.0739041651064625
      ],
      [
        "▁",
        -3.3323610014339415
      ],
      [
        ",",
        -3.336612982726745
      ],
      [
        "▁yang",
        -3.6395929834602754
      ],
      [
        "▁dan",
        -4.10445098726127
      ],
      [
        "▁di",
        -4.311781204437388
      ],
      [
        "▁untuk",
        -4.4752392009364
      ],
      [
        "▁anda",
        -4.514364403118719
      ],
      [
        "▁dengan",
        -4.572390822422438
      ],
      [
        "▁ini",
        -4.605640203704954
      ],
      [
        "-",
        -4.719648252692615
      ],
      [
        "0",
        -4.741200791158089
      ],
      [
        "2",
        -4.927285634625328
      ],
      [
        "1",
        -4.971172731115079
      ],
      [
        "▁dari",
        -4.983559842267201
      ],
      [
        "nya",
        -5.002069634111159
      ],
      [
        "▁bisa",
        -5.083470559972426
      ],
      [
        "▁tidak",
        -5.128342011454112
      ],
      [
        "▁akan",
        -5.217548188047125
      ],
      [
        "▁dalam",
        -5.3061800538816115
      ],
      [
        "▁pada",
        -5.469674309881153
      ],
      [
        "▁adalah",
        -5.473665556850573
      ],
      [
        "▁itu",
        -5.474655112888264
      ],
      [
        "▁juga",
        -5.502039335768956
      ],
      [
        "▁atau",
        -5.557643528068663
      ],
      [
        "i",
        -5.642492796659383
      ],
      [
        "s",
        -5.642528788069388
      ],
      [
        "▁ada",
        -5.65157707538744
      ],
      [
        "▁dapat",
        -5.652806140634066
      ],
      [
        "▁online",
        -5.659750732262655
      ],
      [
        "▁lebih",
        -5.698392584950543
      ],
      [
        "▁ke",
        -5.7642298094336155
      ],
      [
        "▁karena",
        -5.790728333431357
      ],
      [
        "▁banyak",
        -5.7909103938283195
      ],
      [
        ")",
        -5.8399872161195425
      ],
      [
        "(",
        -5.862972671068171
      ],
      [
        "▁mereka",
        -5.962497175267018
      ],
      [
        "3",
        -5.970458354341208
      ],
      [
        "▁jika",
        -5.984436137426567
      ],
      [
        "▁menjadi",
        -5.99559508688019
      ],
      [
        "5",
        -6.021378214629038
      ],
      [
        "▁kita",
        -6.041202545797553
      ],
      [
        ":",
        -6.06369967245983
      ],
      [
        "▁memiliki",
        -6.067845110200075
      ],
      [
        "▁sudah",
        -6.0876214590509115
      ],
      [
        "▁satu",
        -6.091804333364152
      ],
      [
        "▁tersebut",
        -6.10281662548028
      ],
      [
        "▁oleh",
        -6.109772209499031
      ],
      [
        "▁saat",
        -6.112618179009218
      ],
      [
        "8",
        -6.1269077168048085
      ],
      [
        "▁cara",
        -6.135925240221233
      ],
      [
        "▁orang",
        -6.144038944194591
      ],
      [
        "▁harus",
        -6.145688501434098
      ],
      [
        "▁sangat",
        -6.156138222153743
      ],
      [
        "e",
        -6.171493839172779
      ],
      [
        "\"",
        -6.172967647653991
      ],
      [
        "▁saya",
        -6.1784602507456015
      ],
      [
        "▁seperti",
        -6.187891104345393
      ],
      [
        "4",
        -6.2189642767717
      ],
      [
        "▁hal",
        -6.228348645399475
      ],
      [
        "/",
        -6.23006685821624
      ],
      [
        "▁situs",
        -6.232132568413654
      ],
      [
        "9",
        -6.245332583072226
      ],
      [
        "▁sebagai",
        -6.270340057101112
      ],
      [
        "▁bahwa",
        -6.278099886095742
      ],
      [
        "an",
        -6.28991873180129
      ],
      [
        "▁kami",
        -6.304220527556833
      ],
      [
        "▁judi",
        -6.312805778004144
      ],
      [
        "▁beberapa",
        -6.324143242978693
      ],
      [
        "▁permainan",
        -6.33920709892184
      ],
      [
        "▁hanya",
        -6.346589734725086
      ],
      [
        "?",
        -6.378541544952146
      ],
      [
        "▁kamu",
        -6.389306674461871
      ],
      [
        "▁saja",
        -6.405266139280066
      ],
      [
        "▁membuat",
        -6.43667563206386
      ],
      [
        "▁secara",
        -6.4369083991521805
      ],
      [
        "t",
        -6.4602437463598505
      ],
      [
        "a",
        -6.462290649553683
      ],
      [
        "k",
        -6.477278780671366
      ],
      [
        "kan",
        -6.48998972565008
      ],
      [
        "7",
        -6.503761176648819
      ],
      [
        "▁baik",
        -6.505981216246713
      ],
      [
        "▁indonesia",
        -6.515095396435946
      ],
      [
        "6",
        -6.520020971122349
      ],
      [
        "u",
        -6.5338185863227665
      ],
      [
        "▁salah",
        -6.543283798882513
      ],
      [
        "▁besar",
        -6.54777608586442
      ],
      [
        "d",
        -6.5481532890991225
      ],
      [
        "▁maka",
        -6.5517346830127465
      ],
      [
        "▁bermain",
        -6.559510894121242
      ],
      [
        "▁slot",
        -6.563022612748696
      ],
      [
        "▁lain",
        -6.57074677680637
      ],
      [
        "▁menggunakan",
        -6.572286715419526
      ],
      [
        "▁semua",
        -6.575026932250385
      ],
      [
        "▁uang",
        -6.584596349180483
      ],
      [
        "▁para",
        -6.618304839619604
      ],
      [
        "▁poker",
        -6.6438753178118795
      ],
      [
        "▁telah",
        -6.64527874926501
      ],
      [
        "▁game",
        -6.6514218792337765
      ],
      [
        "▁namun",
        -6.6520945358068175
      ],
      [
        "▁bagi",
        -6.668634866157259
      ],
      [
        "▁melakukan",
        -6.672578126068174
      ],
      [
        "▁apa",
        -6.692557355172621
      ],
      [
        "▁tahun",
        -6.699742451593657
      ],
      [
        "▁pemain",
        -6.744861003718977
      ],
      [
        "▁bisnis",
        -6.750097554707121
      ],
      [
        "▁mendapatkan",
        -6.768647748430833
      ],
      [
        "▁waktu",
        -6.779115116659174
      ],
      [
        "m",
        -6.783247727528824
      ],
      [
        "▁ingin",
        -6.797821509876407
      ],
      [
        "▁jadi",
        -6.804643894122876
      ],
      [
        "p",
        -6.80732685419213
      ],
      [
        "o",
        -6.809136409531643
      ],
      [
        "▁mudah",
        -6.8186096008491255
      ],
      [
        "n",
        -6.827503941113935
      ],
      [
        "▁baru",
        -6.837114635230414
      ],
      [
        "▁terbaik",
        -6.846893959274492
      ],
      [
        "▁mungkin",
        -6.860369395892246
      ],
      [
        "r",
        -6.870065733046285
      ],
      [
        "▁setiap",
        -6.870922538562088
      ],
      [
        "–",
        -6.87241619055456
      ],
      [
        "▁harga",
        -6.88424412843073
      ],
      [
        "▁perlu",
        -6.891046348023032
      ],
      [
        "▁masih",
        -6.912250694532684
      ],
      [
        "▁tentang",
        -6.912595283153873
      ],
      [
        "▁ketika",
        -6.9337068621787346
      ],
      [
        "▁lagi",
        -6.939303800394072
      ],
      [
        "▁hari",
        -6.939419124443528
      ],
      [
        "▁sendiri",
        -6.941923241947833
      ],
      [
        "▁setelah",
        -6.944287842232352
      ],
      [
        "”",
        -6.967964952356255
      ],
      [
        "▁rumah",
        -6.969105783116667
      ],
      [
        "▁sehingga",
        -6.9703160712291385
      ],
      [
        "▁merupakan",
        -6.970352782017944
      ],
      [
        "▁dia",
        -6.988954464512229
      ],
      [
        "▁taruhan",
        -6.990752760474564
      ],
      [
        "▁berbagai",
        -7.00161518376844
      ],
      [
        "“",
        -7.002769973654907
      ],
      [
        "▁sebuah",
        -7.00496373362769
      ],
      [
        "▁memberikan",
        -7.008319905693579
      ],
      [
        "▁trading",
        -7.009098914887801
      ],
      [
        "▁aplikasi",
        -7.02013888200047
      ],
      [
        "g",
        -7.021137927658295
      ],
      [
        "▁agar",
        -7.024512251885444
      ],
      [
        "▁lainnya",
        -7.032311892362156
      ],
      [
        "▁sama",
        -7.0346660244807175
      ],
      [
        "▁tetapi",
        -7.056358924151212
      ],
      [
        "▁pun",
        -7.072846693791664
      ],
      [
        "l",
        -7.078205080555584
      ],
      [
        "▁tak",
        -7.089225879000317
      ],
      [
        "▁cukup",
        -7.089723753724048
      ],
      [
        "▁produk",
        -7.095788489697643
      ],
      [
        "h",
        -7.097697523001369
      ],
      [
        "y",
        -7.105973842269517
      ],
      [
        "▁jenis",
        -7.111605297415352
      ],
      [
        "▁paling",
        -7.114448705996352
      ],
      [
        "▁tempat",
        -7.1228743158477315
      ],
      [
        "▁perusahaan",
        -7.136060633592368
      ],
      [
        "▁serta",
        -7.137039921528306
      ],
      [
        "▁anak",
        -7.141012024287619
      ],
      [
        "▁tapi",
        -7.14367400839275
      ],
      [
        "▁forex",
        -7.1539515855959195
      ],
      [
        "▁dilakukan",
        -7.1563161552746095
      ],
      [
        "▁selain",
        -7.158554102571006
      ],
      [
        "▁memang",
        -7.16874226957119
      ],
      [
        "▁tanpa",
        -7.177607770710688
      ],
      [
        "▁sampai",
        -7.182848182513979
      ],
      [
        "▁bahkan",
        -7.200568950138528
      ],
      [
        "!",
        -7.209228509033956
      ],
      [
        "▁atas",
        -7.213387302981488
      ],
      [
        "▁informasi",
        -7.216822903803596
      ],
      [
        "▁dunia",
        -7.217096698904703
      ],
      [
        "▁agen",
        -7.218143655908541
      ],
      [
        "▁mulai",
        -7.2202470592911006
      ],
      [
        "▁hingga",
        -7.233103966070452
      ],
      [
        "▁kepada",
        -7.235610375092136
      ],
      [
        "▁ber",
        -7.251352128804355
      ],
      [
        "com",
        -7.270511219302536
      ],
      [
        "▁melalui",
        -7.271526754155207
      ],
      [
        "b",
        -7.272029228412594
      ],
      [
        "▁langsung",
        -7.278913784148793
      ],
      [
        "▁yaitu",
        -7.288639848074792
      ],
      [
        "▁kasino",
        -7.298297295161609
      ],
      [
        "▁memilih",
        -7.30824139422154
      ],
      [
        "▁kali",
        -7.308768251922149
      ],
      [
        "▁bukan",
        -7.311306124308421
      ],
      [
        "▁bagian",
        -7.326104960282146
      ],
      [
        "▁benar",
        -7.32676200175421
      ],
      [
        "▁pertama",
        -7.340121055782706
      ],
      [
        "▁kartu",
        -7.350207488884321
      ],
      [
        "▁terjadi",
        -7.355242188575085
      ],
      [
        "▁penting",
        -7.356895947481529
      ],
      [
        "▁ia",
        -7.3609338667159
      ],
      [
        "▁tinggi",
        -7.364124554049049
      ],
      [
        "▁digunakan",
        -7.370493213292983
      ],
      [
        "▁sekarang",
        -7.3762170301070125
      ],
      [
        "▁lalu",
        -7.37665977587295
      ],
      [
        "▁melihat",
        -7.395580091494438
      ],
      [
        "c",
        -7.400371066940453
      ],
      [
        "▁bagaimana",
        -7.402089350193728
      ],
      [
        "▁selalu",
        -7.413969685281252
      ],
      [
        "▁aku",
        -7.421721579708683
      ],
      [
        "▁seorang",
        -7.430054811812493
      ],
      [
        "▁bola",
        -7.431576682601042
      ],
      [
        "▁selama",
        -7.431819914173538
      ],
      [
        "▁sekali",
        -7.432595427817894
      ],
      [
        "▁membantu",
        -7.432893840959759
      ],
      [
        "▁belum",
        -7.440484895303941
      ],
      [
        "▁terpercaya",
        -7.444513932500984
      ],
      [
        "▁obat",
        -7.44749020459262
      ],
      [
        "▁kalian",
        -7.454564849822013
      ],
      [
        "▁mana",
        -7.456509418423874
      ],
      [
        "▁tentu",
        -7.458595130242742
      ],
      [
        "▁semakin",
        -7.45918480249119
      ],
      [
        "▁a",
        -7.459523093330452
      ],
      [
        "▁dua",
        -7.46267352298503
      ],
      [
        "▁sistem",
        -7.465704513269429
      ],
      [
        "▁diri",
        -7.468018555324038
      ],
      [
        "▁tahu",
        -7.476402857997701
      ],
      [
        "▁akun",
        -7.476862879530394
      ],
      [
        "▁cepat",
        -7.477135538244191
      ],
      [
        "▁kemudian",
        -7.486618321150617
      ],
      [
        "▁tetap",
        -7.48811632452747
      ],
      [
        "▁internet",
        -7.512131386603077
      ],
      [
        "▁menarik",
        -7.521712829823116
      ],
      [
        "▁masyarakat",
        -7.523770041130943
      ],
      [
        "▁berikut",
        -7.5239532359610255
      ],
      [
        "▁keuntungan",
        -7.526055484140413
      ],
      [
        "▁kalau",
        -7.528462934049209
      ],
      [
        "▁mesin",
        -7.533192458601871
      ],
      [
        "▁hasil",
        -7.536661860198871
      ],
      [
        "▁berbeda",
        -7.537534783516785
      ],
      [
        "▁layanan",
        -7.537572249974538
      ],
      [
        "▁gratis",
        -7.538061149547811
      ],
      [
        "▁sebelum",
        -7.538147665083727
      ],
      [
        "▁sesuai",
        -7.540546878957928
      ],
      [
        "▁kata",
        -7.548701957008429
      ],
      [
        "▁bonus",
        -7.550898772966283
      ],
      [
        "▁jangan",
        -7.554182888381833
      ],
      [
        "▁apakah",
        -7.557665761830181
      ],
      [
        "▁kecil",
        -7.558169855993366
      ],
      [
        "▁pilihan",
        -7.561821542425021
      ],
      [
        "▁the",
        -7.566121457771361
      ],
      [
        "▁kembali",
        -7.571556506464232
      ],
      [
        "▁kota",
        -7.576111734654198
      ],
      [
        "▁sering",
        -7.580871938780469
      ],
      [
        "▁sedang",
        -7.587481399159451
      ],
      [
        "lah",
        -7.591921019940452
      ],
      [
        "▁pernah",
        -7.6000039029782
      ],
      [
        "▁proses",
        -7.601420560237706
      ],
      [
        "▁data",
        -7.610520839804662
      ],
      [
        "▁masalah",
        -7.615440177657144
      ],
      [
        "▁mencari",
        -7.617643460209104
      ],
      [
        "▁biasanya",
        -7.619708434875015
      ],
      [
        "▁air",
        -7.632009543946564
      ],
      [
        "▁daftar",
        -7.633018907991811
      ],
      [
        "▁pasar",
        -7.639519889682301
      ],
      [
        "▁fitur",
        -7.639561121790059
      ],
      [
        "▁mobil",
        -7.644408881357947
      ],
      [
        "'",
        -7.661420346451051
      ],
      [
        "▁negara",
        -7.66368408568121
      ],
      [
        "▁bersama",
        -7.665072073238179
      ],
      [
        "▁terus",
        -7.666244296082688
      ],
      [
        "▁jumlah",
        -7.670697051552818
      ],
      [
        "▁web",
        -7.672362773227851
      ],
      [
        "▁begitu",
        -7.682166453319425
      ],
      [
        "▁togel",
        -7.685917516376959
      ],
      [
        "▁menemukan",
        -7.693759161709451
      ],
      [
        "▁antara",
        -7.698298457345274
      ],
      [
        "▁tepat",
        -7.713463498102243
      ],
      [
        "▁pasti",
        -7.717670673516794
      ],
      [
        "▁video",
        -7.719942189778914
      ],
      [
        "▁per",
        -7.7252138546146
      ],
      [
        "▁luar",
        -7.725442108039655
      ],
      [
        "▁kesehatan",
        -7.731007838573891
      ],
      [
        "▁menang",
        -7.731194251962462
      ],
      [
        "%",
        -7.738909242581608
      ],
      [
        "mu",
        -7.740498269632274
      ],
      [
        "▁lama",
        -7.742127287088177
      ],
      [
        "▁strategi",
        -7.742368556633027
      ],
      [
        "▁usaha",
        -7.745482870574433
      ],
      [
        "▁tim",
        -7.747573086866737
      ],
      [
        "▁website",
        -7.748634147797711
      ],
      [
        "▁kerja",
        -7.752920051456323
      ],
      [
        "▁lakukan",
        -7.756290861126345
      ],
      [
        "▁masuk",
        -7.757587454318859
      ],
      [
        "f",
        -7.759166980033347
      ],
      [
        "▁ter",
        -7.7780423742910365
      ],
      [
        "▁ya",
        -7.778557449373096
      ],
      [
        "▁biaya",
        -7.779746570858775
      ],
      [
        "▁deposit",
        -7.785090420813296
      ],
      [
        "▁berada",
        -7.789330914838468
      ],
      [
        "|",
        -7.798731960820733
      ],
      [
        "▁sedikit",
        -7.799847627743894
      ],
      [
        "▁nama",
        -7.805646865877604
      ],
      [
        "▁terhadap",
        -7.809739354355514
      ],
      [
        "▁jam",
        -7.814297978695693
      ],
      [
        "▁seluruh",
        -7.81849013959445
      ],
      [
        "▁hidup",
        -7.818747108957014
      ],
      [
        "▁bagus",
        -7.819009517197406
      ],
      [
        "ing",
        -7.825088133739303
      ],
      [
        "▁belajar",
        -7.827545284441008
      ],
      [
        "▁masa",
        -7.835736320343537
      ],
      [
        "▁suatu",
        -7.835893011506471
      ],
      [
        "▁sebelumnya",
        -7.837808797294969
      ],
      [
        "▁terbaru",
        -7.840130073138568
      ],
      [
        "▁artikel",
        -7.840947305983754
      ],
      [
        "▁kedua",
        -7.844214440245816
      ],
      [
        "in",
        -7.848963458889584
      ],
      [
        "▁kebutuhan",
        -7.849719917085185
      ],
      [
        "▁biasa",
        -7.860979340901661
      ],
      [
        "▁termasuk",
        -7.8615589466599936
      ],
      [
        "▁media",
        -7.863629916560805
      ],
      [
        "▁mampu",
        -7.867890899823431
      ],
      [
        "▁bawah",
        -7.869287560558453
      ],
      [
        "▁peluang",
        -7.875355661134694
      ],
      [
        "▁rp",
        -7.875713410588968
      ],
      [
        "▁utama",
        -7.8783845417774305
      ],
      [
        "er",
        -7.883383360990081
      ],
      [
        "▁mau",
        -7.885568799147022
      ],
      [
        "▁meningkatkan",
        -7.888172142377464
      ],
      [
        "▁bekerja",
        -7.895824036508394
      ],
      [
        "▁sekitar",
        -7.901124798351786
      ],
      [
        "▁makanan",
        -7.905256042752745
      ],
      [
        "▁jauh",
        -7.907704731838319
      ],
      [
        "▁tubuh",
        -7.909095213772693
      ],
      [
        "▁buat",
        -7.914003306352665
      ],
      [
        "▁maupun",
        -7.9247385042368546
      ],
      [
        "▁jasa",
        -7.925377250297412
      ],
      [
        "▁kondisi",
        -7.927468814771803
      ],
      [
        "▁se",
        -7.930886137222437
      ],
      [
        "▁bahan",
        -7.93300251909047
      ],
      [
        "▁mata",
        -7.9334730147924
      ],
      [
        "▁android",
        -7.934230963784417
      ],
      [
        "▁in",
        -7.935060469602913
      ],
      [
        "▁mengetahui",
        -7.9360924802331425
      ],
      [
        "▁pengguna",
        -7.945754746555632
      ],
      [
        "▁bulan",
        -7.948554181293121
      ],
      [
        "▁tangan",
        -7.958717792411113
      ],
      [
        "▁resmi",
        -7.96250021016005
      ],
      [
        "▁modal",
        -7.964816762407777
      ],
      [
        "▁menawarkan",
        -7.964878662885333
      ],
      [
        "▁mengatakan",
        -7.966229103398856
      ],
      [
        "▁bank",
        -7.966506384831641
      ],
      [
        "▁merasa",
        -7.967702949307032
      ],
      [
        "▁to",
        -7.9727001196808995
      ],
      [
        "▁tersedia",
        -7.97394116326867
      ],
      [
        "▁sebagian",
        -7.981959372650195
      ],
      [
        "▁program",
        -7.98281255236112
      ],
      [
        "benar",
        -7.983021270627015
      ],
      [
        "▁tentunya",
        -7.983211964384452
      ],
      [
        "▁mengenai",
        -7.985914059304125
      ],
      [
        "▁tips",
        -7.991365886271899
      ],
      [
        "▁desain",
        -7.991682148086753
      ],
      [
        "▁awal",
        -7.993141716426624
      ],
      [
        "▁mengalami",
        -7.993772730497682
      ],
      [
        "▁membeli",
        -7.994818146885686
      ],
      [
        "▁nilai",
        -8.001139811091189
      ],
      [
        "▁dimana",
        -8.00637427762461
      ],
      [
        "▁aman",
        -8.014820395165295
      ],
      [
        "▁punya",
        -8.015316481723563
      ],
      [
        "▁of",
        -8.01766593451752
      ],
      [
        "▁mencoba",
        -8.01886779374059
      ],
      [
        "▁terlalu",
        -8.019166551434171
      ],
      [
        "▁murah",
        -8.022026350079694
      ],
      [
        "▁menghasilkan",
        -8.02263433224408
      ],
      [
        "▁khusus",
        -8.03054397533425
      ],
      [
        "▁pemerintah",
        -8.031678892755401
      ],
      [
        "▁menyediakan",
        -8.037133860530433
      ],
      [
        "▁kemenangan",
        -8.04465058349407
      ],
      [
        "▁depan",
        -8.046039045917285
      ],
      [
        "▁kegiatan",
        -8.049503308005239
      ],
      [
        "▁perangkat",
        -8.049850988012423
      ],
      [
        "▁langkah",
        -8.054990068454996
      ],
      [
        "▁datang",
        -8.05614944452595
      ],
      [
        "▁teman",
        -8.05813970005965
      ],
      [
        "▁sebenarnya",
        -8.060606827395818
      ],
      [
        "▁penyakit",
        -8.063811389170414
      ],
      [
        "▁pria",
        -8.071374326277828
      ],
      [
        "▁menurut",
        -8.071936548654087
      ],
      [
        "▁on",
        -8.078286338318378
      ],
      [
        "▁jakarta",
        -8.079299770850781
      ],
      [
        "▁broker",
        -8.086766283317589
      ],
      [
        "▁jalan",
        -8.091062381188909
      ],
      [
        "▁wanita",
        -8.09181420968401
      ],
      [
        "▁adanya",
        -8.09245346535515
      ],
      [
        "▁barang",
        -8.09445903702772
      ],
      [
        "▁tujuan",
        -8.09962715599537
      ],
      [
        "▁umum",
        -8.10264442097311
      ],
      [
        "▁kurang",
        -8.104730936779927
      ],
      [
        "▁sosial",
        -8.107626486070453
      ],
      [
        "▁meskipun",
        -8.109517202038207
      ],
      [
        "▁nah",
        -8.111228362646118
      ],
      [
        "▁misalnya",
        -8.117403075104734
      ],
      [
        "▁bentuk",
        -8.1180009460558
      ],
      [
        "▁investasi",
        -8.118678162020032
      ],
      [
        "▁memberi",
        -8.119626752090216
      ],
      [
        "▁meng",
        -8.127776816982225
      ],
      [
        "▁jelas",
        -8.12788509949265
      ],
      [
        "▁sementara",
        -8.130075612731186
      ],
      [
        "▁casino",
        -8.130396254655262
      ],
      [
        "▁s",
        -8.131520839763448
      ],
      [
        "▁option",
        -8.131762334354523
      ],
      [
        "&",
        -8.132272951832016
      ],
      [
        "▁membutuhkan",
        -8.135437121098546
      ],
      [
        "▁tertentu",
        -8.137638020250424
      ],
      [
        "▁gunakan",
        -8.13867432661891
      ],
      [
        "▁segera",
        -8.140401070039088
      ],
      [
        "▁sejak",
        -8.143264647120647
      ],
      [
        ";",
        -8.143332914325399
      ],
      [
        "orang",
        -8.14784045187469
      ],
      [
        "▁alat",
        -8.150955854435168
      ],
      [
        "▁pihak",
        -8.153260651397973
      ],
      [
        "▁berhasil",
        -8.156583506666793
      ],
      [
        "▁blog",
        -8.15766276504022
      ],
      [
        "▁teknologi",
        -8.158574447070372
      ],
      [
        "’",
        -8.161652400091961
      ],
      [
        "▁akhirnya",
        -8.162823230582132
      ],
      [
        "▁olahraga",
        -8.163349601229454
      ],
      [
        "di",
        -8.166401834230916
      ],
      [
        "▁manusia",
        -8.16700903728794
      ],
      [
        "▁bandar",
        -8.169470715316052
      ],
      [
        "▁me",
        -8.170131086852045
      ],
      [
        "▁and",
        -8.176298453826293
      ],
      [
        "▁trader",
        -8.179209396101301
      ],
      [
        "$",
        -8.180764264492513
      ],
      [
        "▁rasa",
        -8.181717889511065
      ],
      [
        "x",
        -8.183060071323956
      ],
      [
        "▁seseorang",
        -8.18314551317629
      ],
      [
        "▁terlihat",
        -8.183715776185812
      ],
      [
        "▁foto",
        -8.18563699352881
      ],
      [
        "▁nomor",
        -8.185791525555334
      ],
      [
        "▁warna",
        -8.190775840910035
      ],
      [
        "▁tingkat",
        -8.192234579269618
      ],
      [
        "▁kulit",
        -8.192958360246458
      ],
      [
        "▁bila",
        -8.19322858960898
      ],
      [
        "▁dana",
        -8.193273486427453
      ],
      [
        "▁gambar",
        -8.196310125504574
      ],
      [
        "▁si",
        -8.196817808150554
      ],
      [
        "▁posisi",
        -8.202083818045365
      ],
      [
        "▁keluarga",
        -8.20301667672927
      ],
      [
        "▁demikian",
        -8.203873618744229
      ],
      [
        "▁download",
        -8.206725680028795
      ],
      [
        "▁transaksi",
        -8.209937210080328
      ],
      [
        "▁kuat",
        -8.21011913530025
      ],
      [
        "w",
        -8.213303922007249
      ],
      [
        "▁sulit",
        -8.213443392426031
      ],
      [
        "▁pilih",
        -8.217231684385409
      ],
      [
        "▁tiga",
        -8.218385028037915
      ],
      [
        "▁bahasa",
        -8.22227234979386
      ],
      [
        "al",
        -8.229920253533402
      ],
      [
        "▁kualitas",
        -8.232753771501663
      ],
      [
        "▁film",
        -8.236931974273432
      ],
      [
        "▁pekerjaan",
        -8.23732746467973
      ],
      [
        "▁makan",
        -8.241494174348022
      ],
      [
        "▁perjudian",
        -8.241811636378761
      ],
      [
        "▁toko",
        -8.242298952551824
      ],
      [
        "▁daerah",
        -8.250247035717855
      ],
      [
        "▁memainkan",
        -8.250316940846933
      ],
      [
        "▁pengalaman",
        -8.253564499437747
      ],
      [
        "▁mengambil",
        -8.254969100859073
      ],
      [
        "▁mencapai",
        -8.255801317861621
      ],
      [
        "▁perdagangan",
        -8.257139143717502
      ],
      [
        "▁manfaat",
        -8.257300964083413
      ],
      [
        "▁asli",
        -8.257844643868442
      ],
      [
        "▁google",
        -8.263549101366888
      ],
      [
        "▁sesuatu",
        -8.264413635389577
      ],
      [
        "▁sukses",
        -8.267791755015208
      ],
      [
        "▁main",
        -8.280420810916745
      ],
      [
        "▁kesempatan",
        -8.281226534779474
      ],
      [
        "▁berarti",
        -8.282383536156377
      ],
      [
        "▁angka",
        -8.28501855721745
      ],
      [
        "▁pelanggan",
        -8.285339288743574
      ],
      [
        "▁terlebih",
        -8.28837368948946
      ],
      [
        "▁terdapat",
        -8.29022706789676
      ],
      [
        "▁sumber",
        -8.298963412728344
      ],
      [
        "▁terutama",
        -8.300603709550973
      ],
      [
        "▁populer",
        -8.301580722280253
      ],
      [
        "▁selanjutnya",
        -8.30162296690762
      ],
      [
        "▁apabila",
        -8.302452297620992
      ],
      [
        "▁keuangan",
        -8.306234377032087
      ],
      [
        "▁sebab",
        -8.308551277442435
      ],
      [
        "▁dapatkan",
        -8.31782608943752
      ],
      [
        "▁membuka",
        -8.320172346263965
      ],
      [
        "▁contoh",
        -8.321978658336553
      ],
      [
        "▁metode",
        -8.322016205351296
      ],
      [
        "▁juta",
        -8.32230600991551
      ],
      [
        "▁buku",
        -8.3254087744594
      ],
      [
        "▁opsi",
        -8.326984160742652
      ],
      [
        "▁dulu",
        -8.328486001641018
      ],
      [
        "▁sini",
        -8.329404348346173
      ],
      [
        "▁m",
        -8.331085942839191
      ],
      [
        "▁pembayaran",
        -8.332113425620696
      ],
      [
        "▁terakhir",
        -8.337148069852057
      ],
      [
        "▁kini",
        -8.339664177195486
      ],
      [
        "▁muncul",
        -8.341263458025203
      ],
      [
        "▁hati",
        -8.345262370395501
      ],
      [
        "▁alasan",
        -8.346304329412575
      ],
      [
        "▁ruang",
        -8.348574414919083
      ],
      [
        "▁kemampuan",
        -8.351058235057153
      ],
      [
        "▁tinggal",
        -8.351195246807825
      ],
      [
        "▁masing",
        -8.357323675372434
      ],
      [
        "▁smartphone",
        -8.359305033432786
      ],
      [
        "ya",
        -8.360575539226932
      ],
      [
        "▁cocok",
        -8.363180163627542
      ],
      [
        "▁diberikan",
        -8.365139745321216
      ],
      [
        "▁terbesar",
        -8.365584010697507
      ],
      [
        "▁panjang",
        -8.368650022656722
      ],
      [
        "▁wisata",
        -8.36896868280901
      ],
      [
        "▁sekolah",
        -8.375682293747404
      ],
      [
        "▁disebut",
        -8.380381551200676
      ],
      [
        "▁baca",
        -8.381775066678866
      ],
      [
        "▁menerima",
        -8.381806846929244
      ],
      [
        "▁saham",
        -8.38227709984876
      ],
      [
        "▁as",
        -8.382632557103962
      ],
      [
        "▁men",
        -8.38363586319552
      ],
      [
        "▁dahulu",
        -8.38623619177055
      ],
      [
        "▁ternyata",
        -8.386279680407538
      ],
      [
        "▁lengkap",
        -8.390286367111367
      ],
      [
        "▁ibu",
        -8.390350698318324
      ],
      [
        "▁nyaman",
        -8.391117139245289
      ],
      [
        "▁tengah",
        -8.392176795773013
      ],
      [
        "▁anggota",
        -8.392331411458478
      ],
      [
        "▁memulai",
        -8.392944063128166
      ],
      [
        "▁jual",
        -8.394714076996808
      ],
      [
        "▁siapa",
        -8.397570420909581
      ],
      [
        "▁terkait",
        -8.399379577360644
      ],
      [
        "▁menunjukkan",
        -8.400846381818946
      ],
      [
        "▁pertandingan",
        -8.402159071261906
      ],
      [
        "▁memungkinkan",
        -8.40405552283591
      ],
      [
        "▁akhir",
        -8.406121309907645
      ],
      [
        "co",
        -8.41025812375269
      ],
      [
        "▁kemungkinan",
        -8.411183740223823
      ],
      [
        "▁sakit",
        -8.413025084302099
      ],
      [
        "▁berjalan",
        -8.41313961727561
      ],
      [
        "▁memenangkan",
        -8.415432351087592
      ],
      [
        "j",
        -8.415705476577267
      ],
      [
        "▁mempunyai",
        -8.416224128605087
      ],
      [
        "▁b",
        -8.416519699362828
      ],
      [
        "▁yakni",
        -8.418413369078344
      ],
      [
        "▁suka",
        -8.41956545336559
      ],
      [
        "▁itulah",
        -8.422886687670195
      ],
      [
        "▁acara",
        -8.423297963998529
      ],
      [
        "▁meja",
        -8.423651597504184
      ],
      [
        "▁member",
        -8.425052488764802
      ],
      [
        "▁fasilitas",
        -8.428876019573297
      ],
      [
        "▁dimainkan",
        -8.428879338274424
      ],
      [
        "▁hampir",
        -8.429322593469255
      ],
      [
        "▁siap",
        -8.436066461724758
      ],
      [
        "▁membaca",
        -8.436899416346789
      ],
      [
        "▁by",
        -8.440003461204906
      ],
      [
        "▁pribadi",
        -8.44775939336152
      ],
      [
        "▁link",
        -8.44832740042357
      ],
      [
        "▁platform",
        -8.44837343242844
      ],
      [
        "▁keluar",
        -8.448473342018227
      ],
      [
        "▁no",
        -8.449488087697775
      ],
      [
        "▁sehat",
        -8.449632257911196
      ],
      [
        "▁dasar",
        -8.45047605119401
      ],
      [
        "▁desa",
        -8.451583288312612
      ],
      [
        "masing",
        -8.45740442302221
      ],
      [
        "anak",
        -8.458753556535992
      ],
      [
        "▁dibuat",
        -8.460038229349044
      ],
      [
        "v",
        -8.463155090044998
      ],
      [
        "▁mengikuti",
        -8.463441147367272
      ],
      [
        "▁pula",
        -8.466176498552116
      ],
      [
        "▁sederhana",
        -8.466860801509407
      ],
      [
        "▁versi",
        -8.46874461072781
      ],
      [
        "▁macam",
        -8.470451096478557
      ],
      [
        "▁mengapa",
        -8.473301998091767
      ],
      [
        "▁inggris",
        -8.473810657854932
      ],
      [
        "▁ukuran",
        -8.474136555744503
      ],
      [
        "▁berdasarkan",
        -8.47915944478828
      ],
      [
        "▁alami",
        -8.480091793867572
      ],
      [
        "▁membawa",
        -8.48040265107295
      ],
      [
        "▁berita",
        -8.485045160444033
      ],
      [
        "▁kamar",
        -8.491569532018424
      ],
      [
        "▁lihat",
        -8.492530875887121
      ],
      [
        "▁model",
        -8.493727305658267
      ],
      [
        "▁daya",
        -8.500002413890556
      ],
      [
        "▁sejumlah",
        -8.500177079291571
      ],
      [
        "]",
        -8.50268391974304
      ],
      [
        "▁komputer",
        -8.503106454411505
      ],
      [
        "▁ataupun",
        -8.507179470526685
      ],
      [
        "[",
        -8.507928887566585
      ],
      [
        "▁apalagi",
        -8.511426724282027
      ],
      [
        "▁coba",
        -8.513760525688255
      ],
      [
        "▁menikmati",
        -8.514173620258244
      ],
      [
        "▁games",
        -8.516174798207375
      ],
      [
        "▁digital",
        -8.517572285102519
      ],
      [
        "ter",
        -8.518353840175736
      ],
      [
        "▁mendapat",
        -8.518407181208106
      ],
      [
        "▁sedangkan",
        -8.521265482916297
      ],
      [
        "▁ekonomi",
        -8.52330657717573
      ],
      [
        "▁pendidikan",
        -8.523456031351389
      ],
      [
        "▁menentukan",
        -8.527176772228364
      ],
      [
        "▁malam",
        -8.529277053909988
      ],
      [
        "▁halaman",
        -8.532417750916142
      ],
      [
        "▁segala",
        -8.533442024191395
      ],
      [
        "▁pastikan",
        -8.533761273579977
      ],
      [
        "▁kasus",
        -8.538870221045801
      ],
      [
        "▁menjaga",
        -8.539866205463063
      ],
      [
        "▁lokasi",
        -8.541777900935536
      ],
      [
        "▁daripada",
        -8.542595020760345
      ],
      [
        "▁pemula",
        -8.543303199587774
      ],
      [
        "▁semoga",
        -8.543838444103773
      ],
      [
        "▁hotel",
        -8.547885253276382
      ],
      [
        "▁d",
        -8.550005622091449
      ],
      [
        "▁al",
        -8.550664956285404
      ],
      [
        "▁kepala",
        -8.55313230617929
      ],
      [
        "▁perjalanan",
        -8.555454987212784
      ],
      [
        "▁admin",
        -8.55889603206223
      ],
      [
        "▁bidang",
        -8.56047705552315
      ],
      [
        "▁file",
        -8.561461877479479
      ],
      [
        "▁memahami",
        -8.561913323462168
      ],
      [
        "▁beli",
        -8.563177392607459
      ],
      [
        "▁tambahan",
        -8.56493767173655
      ],
      [
        "▁kehidupan",
        -8.565686430220936
      ],
      [
        "▁kabupaten",
        -8.566878582091608
      ],
      [
        "▁penggunaan",
        -8.569841509415443
      ],
      [
        "▁tidur",
        -8.571701411941351
      ],
      [
        "▁klik",
        -8.571924257875258
      ],
      [
        "▁sisi",
        -8.573633451536896
      ],
      [
        "▁membangun",
        -8.575052904322458
      ],
      [
        "▁konsumen",
        -8.578295725056995
      ],
      [
        "▁paket",
        -8.579256881515173
      ],
      [
        "▁sbobet",
        -8.57935486317796
      ],
      [
        "▁trade",
        -8.579893175269236
      ],
      [
        "hal",
        -8.580057917723638
      ],
      [
        "▁dikenal",
        -8.581367176330113
      ],
      [
        "▁industri",
        -8.583439855991749
      ],
      [
        "▁berat",
        -8.584224301233407
      ],
      [
        "▁lewat",
        -8.584892714872309
      ],
      [
        "▁menit",
        -8.586846087864087
      ],
      [
        "▁umumnya",
        -8.588986456528525
      ],
      [
        "▁re",
        -8.59191788527329
      ],
      [
        "ka",
        -8.592023250105003
      ],
      [
        "▁rendah",
        -8.594201688091541
      ],
      [
        "▁faktor",
        -8.598075195546306
      ],
      [
        "▁akses",
        -8.598078540174223
      ],
      [
        "▁pergi",
        -8.601450287569413
      ],
      [
        "▁bergabung",
        -8.602785345257615
      ],
      [
        "▁email",
        -8.603863607947792
      ],
      [
        "▁live",
        -8.605018154826041
      ],
      [
        "▁konten",
        -8.605135948975647
      ],
      [
        "▁kantor",
        -8.606346799809922
      ],
      [
        "▁hadiah",
        -8.607908474582864
      ],
      [
        "▁menyebabkan",
        -8.60908794996649
      ],
      [
        "▁jaringan",
        -8.611030556447608
      ],
      [
        "▁hubungan",
        -8.611326197536545
      ],
      [
        "▁menu",
        -8.611781593969456
      ],
      [
        "▁binary",
        -8.612317685421303
      ],
      [
        "▁penuh",
        -8.613439849477743
      ],
      [
        "▁badan",
        -8.617670231526729
      ],
      [
        "▁pasangan",
        -8.625104036732068
      ],
      [
        "▁ikan",
        -8.626233053526985
      ],
      [
        "▁for",
        -8.627324875158676
      ],
      [
        "man",
        -8.628421169744552
      ],
      [
        "▁profesional",
        -8.628651591934807
      ],
      [
        "▁bertaruh",
        -8.628819372887719
      ],
      [
        "▁buah",
        -8.629455172705502
      ],
      [
        "▁negeri",
        -8.629886767406036
      ],
      [
        "▁allah",
        -8.63003534970595
      ],
      [
        "▁pulsa",
        -8.6306196635343
      ],
      [
        "▁c",
        -8.633157038090372
      ],
      [
        "▁hp",
        -8.634885302799546
      ],
      [
        "▁muda",
        -8.635653123616779
      ],
      [
        "▁home",
        -8.64165123963681
      ],
      [
        "▁musim",
        -8.642257219001193
      ],
      [
        "▁disini",
        -8.644721417966934
      ],
      [
        "▁warga",
        -8.648253066107548
      ],
      [
        "▁percaya",
        -8.65256198673847
      ],
      [
        "▁efek",
        -8.652716455387043
      ],
      [
        "▁inilah",
        -8.6552289062897
      ],
      [
        "▁mendukung",
        -8.655502651955146
      ],
      [
        "▁pt",
        -8.655675760507373
      ],
      [
        "▁tua",
        -8.656414186225936
      ],
      [
        "▁aktivitas",
        -8.65641991823076
      ],
      [
        "▁risiko",
        -8.661078269029161
      ],
      [
        "▁ponsel",
        -8.661718887107304
      ],
      [
        "▁bermanfaat",
        -8.665084214456513
      ],
      [
        "▁pertanyaan",
        -8.665905491123949
      ],
      [
        "▁wilayah",
        -8.669305008709763
      ],
      [
        "▁perubahan",
        -8.674348088222372
      ],
      [
        "▁naik",
        -8.67569617453622
      ],
      [
        "»",
        -8.677365281928525
      ],
      [
        "▁meski",
        -8.678477972838278
      ],
      [
        "▁ayam",
        -8.68121105160071
      ],
      [
        "▁lingkungan",
        -8.681345163180394
      ],
      [
        "▁tanggal",
        -8.685927572622608
      ],
      [
        "▁dokter",
        -8.686292776255215
      ],
      [
        "▁dekat",
        -8.68663035109322
      ],
      [
        "▁kelas",
        -8.6875794277012
      ],
      [
        "▁kredit",
        -8.68854865311944
      ],
      [
        "▁dirinya",
        -8.693653499694713
      ],
      [
        "▁pusat",
        -8.694980022119703
      ],
      [
        "▁mahasiswa",
        -8.696041470319072
      ],
      [
        "▁teknik",
        -8.696403985025013
      ],
      [
        "▁joker",
        -8.697165909421607
      ],
      [
        "▁mobile",
        -8.697922462162527
      ],
      [
        "▁yg",
        -8.698718472388014
      ],
      [
        "▁hukum",
        -8.699356898008837
      ],
      [
        "▁be",
        -8.699848876337866
      ],
      [
        "▁iklan",
        -8.7002061695065
      ],
      [
        "▁minggu",
        -8.704061722221855
      ],
      [
        "▁nantinya",
        -8.706883358298262
      ],
      [
        "▁domino",
        -8.707360550981136
      ],
      [
        "▁pelayanan",
        -8.707838159205263
      ],
      [
        "ma",
        -8.712330117025827
      ],
      [
        "▁de",
        -8.713495966987288
      ],
      [
        "▁sebesar",
        -8.716052732703414
      ],
      [
        "▁menguntungkan",
        -8.717162665078057
      ],
      [
        "▁dibandingkan",
        -8.71946978009616
      ],
      [
        "z",
        -8.719760101065038
      ],
      [
        "▁aturan",
        -8.72055868544383
      ],
      [
        "▁dibutuhkan",
        -8.721167227998864
      ],
      [
        "▁luas",
        -8.723826428038189
      ],
      [
        "▁kalah",
        -8.723933888485481
      ],
      [
        "▁motor",
        -8.724474454745103
      ],
      [
        "▁semuanya",
        -8.725401331479555
      ],
      [
        "to",
        -8.728817796714791
      ],
      [
        "▁membayar",
        -8.729028838646913
      ],
      [
        "▁darah",
        -8.729139017311258
      ],
      [
        "▁kehilangan",
        -8.729848067398134
      ],
      [
        "▁memastikan",
        -8.729867134093087
      ],
      [
        "▁sana",
        -8.731137864181369
      ],
      [
        "▁buruk",
        -8.734510150441253
      ],
      [
        "▁facebook",
        -8.736294049022877
      ],
      [
        "▁tanah",
        -8.739630434519524
      ],
      [
        "▁keamanan",
        -8.741560661442094
      ],
      [
        "▁supaya",
        -8.742930775078182
      ],
      [
        "▁jackpot",
        -8.743079218943963
      ],
      [
        "ah",
        -8.74345825196364
      ],
      [
        "▁unik",
        -8.743666348730596
      ],
      [
        "▁prediksi",
        -8.748628937184371
      ],
      [
        "▁lanjut",
        -8.750049589058271
      ],
      [
        "▁profit",
        -8.750448546087574
      ],
      [
        "▁x",
        -8.751383319672405
      ],
      [
        "ng",
        -8.752150509610155
      ],
      [
        "▁sebaiknya",
        -8.755065792638623
      ],
      [
        "▁mainkan",
        -8.756263750415165
      ],
      [
        "▁beragam",
        -8.756569184746768
      ],
      [
        "▁berasal",
        -8.757891378924805
      ],
      [
        "▁is",
        -8.763766743732596
      ],
      [
        "▁solusi",
        -8.764359145183963
      ],
      [
        "▁nanti",
        -8.765824618560039
      ],
      [
        "▁k",
        -8.766631475234052
      ],
      [
        "▁terkenal",
        -8.767187726989055
      ],
      [
        "▁silahkan",
        -8.768105322528298
      ],
      [
        "▁jawa",
        -8.769695303767262
      ],
      [
        "▁berkembang",
        -8.770061894262343
      ],
      [
        "▁amerika",
        -8.771830582368166
      ],
      [
        "▁berkualitas",
        -8.776207159629388
      ],
      [
        "▁diketahui",
        -8.777079559555812
      ],
      [
        "▁kapan",
        -8.777589567172472
      ],
      [
        "▁menyenangkan",
        -8.779484458668591
      ],
      [
        "at",
        -8.785858393415479
      ],
      [
        "▁wajah",
        -8.786465280148589
      ],
      [
        "▁memanfaatkan",
        -8.787194771514852
      ],
      [
        "▁berapa",
        -8.791961114559514
      ],
      [
        "▁pe",
        -8.796331989141779
      ],
      [
        "▁bantuan",
        -8.799330356607802
      ],
      [
        "▁nasional",
        -8.799354167894743
      ],
      [
        "▁produksi",
        -8.799946167176602
      ],
      [
        "▁usia",
        -8.803278697160374
      ],
      [
        "▁fungsi",
        -8.80476947637088
      ],
      [
        "▁bayi",
        -8.806424507817967
      ],
      [
        "▁mengatasi",
        -8.806876201328734
      ],
      [
        "*",
        -8.806928419612325
      ],
      [
        "▁mem",
        -8.8075419780373
      ],
      [
        "‘",
        -8.807784313891998
      ],
      [
        "▁menjalankan",
        -8.808014600060096
      ],
      [
        "▁apapun",
        -8.80949615104874
      ],
      [
        "▁bunga",
        -8.812570788029845
      ],
      [
        "▁ide",
        -8.814235759368145
      ],
      [
        "▁p",
        -8.815196758741056
      ],
      [
        "▁pastinya",
        -8.8170289004662
      ],
      [
        "▁kanker",
        -8.818001351287988
      ],
      [
        "▁cari",
        -8.818121988255491
      ],
      [
        "en",
        -8.819298056414219
      ],
      [
        "▁pro",
        -8.820597417588889
      ],
      [
        "ar",
        -8.823875231315299
      ],
      [
        "▁memenuhi",
        -8.827407686091707
      ],
      [
        "▁aktif",
        -8.828507165219062
      ],
      [
        "▁hadir",
        -8.828798388909904
      ],
      [
        "▁ketiga",
        -8.82914860686865
      ],
      [
        "▁poin",
        -8.830068169528797
      ],
      [
        "▁wajib",
        -8.831910544911006
      ],
      [
        "▁tampilan",
        -8.83258510335789
      ],
      [
        "▁sehari",
        -8.83284087036674
      ],
      [
        "▁memperoleh",
        -8.833873206601824
      ],
      [
        "▁bebas",
        -8.834109675792993
      ],
      [
        "▁gaya",
        -8.834683183704954
      ],
      [
        "▁pola",
        -8.836412607595516
      ],
      [
        "▁penelitian",
        -8.84172444897848
      ],
      [
        "▁pesan",
        -8.84210742434395
      ],
      [
        "▁menjual",
        -8.842165214948004
      ],
      [
        "▁suara",
        -8.844517291534546
      ],
      [
        "▁f",
        -8.84454457050619
      ],
      [
        "▁instagram",
        -8.844797559733243
      ],
      [
        "▁putih",
        -8.84799679881665
      ],
      [
        "▁ilmu",
        -8.84902090693478
      ],
      [
        "▁persen",
        -8.8500545974637
      ],
      [
        "▁jangka",
        -8.851321110164006
      ],
      [
        "▁diperlukan",
        -8.851522514093237
      ],
      [
        "+",
        -8.856075863799163
      ],
      [
        "▁penjualan",
        -8.856759610982937
      ],
      [
        "▁satunya",
        -8.859278990975497
      ],
      [
        "▁layar",
        -8.859382557112694
      ],
      [
        "▁boleh",
        -8.86164517054848
      ],
      [
        "▁maksimal",
        -8.864504747184801
      ],
      [
        "▁area",
        -8.865708417758569
      ],
      [
        "▁total",
        -8.866705956247046
      ],
      [
        "▁otomatis",
        -8.868099984910847
      ],
      [
        "▁positif",
        -8.868580564039782
      ],
      [
        "hari",
        -8.870202280560596
      ],
      [
        "on",
        -8.87188162490186
      ],
      [
        "▁you",
        -8.874480519903626
      ],
      [
        "▁sang",
        -8.875761988569668
      ],
      [
        "▁berpikir",
        -8.876352809062508
      ],
      [
        "▁efektif",
        -8.877446726632876
      ],
      [
        "▁info",
        -8.878213711078226
      ],
      [
        "▁perkembangan",
        -8.879015400543986
      ],
      [
        "per",
        -8.88195115931319
      ],
      [
        "▁siswa",
        -8.881989458716108
      ],
      [
        "▁pendaftaran",
        -8.882398093360859
      ],
      [
        "▁miliki",
        -8.88457413443551
      ],
      [
        "#",
        -8.88593587836988
      ],
      [
        "▁bitcoin",
        -8.886288421091189
      ],
      [
        "▁sekaligus",
        -8.886882814700323
      ],
      [
        "▁keras",
        -8.887458153038192
      ],
      [
        "▁empat",
        -8.890068277326359
      ],
      [
        "▁ketahui",
        -8.892041702030001
      ],
      [
        "▁lima",
        -8.892363395449566
      ],
      [
        "▁perbedaan",
        -8.892487351748747
      ],
      [
        "▁berikutnya",
        -8.893138603915443
      ],
      [
        "da",
        -8.89411158485271
      ],
      [
        "▁diatas",
        -8.895208764166348
      ],
      [
        "▁meraih",
        -8.897453057573419
      ],
      [
        "▁meminta",
        -8.897937777846789
      ],
      [
        "▁kelompok",
        -8.89993055354092
      ],
      [
        "▁indikator",
        -8.900391648115875
      ],
      [
        "▁peserta",
        -8.901773767709603
      ],
      [
        "▁pantai",
        -8.902017766764676
      ],
      [
        "▁alam",
        -8.904198321028247
      ],
      [
        "▁jawab",
        -8.905175334556274
      ],
      [
        "▁keputusan",
        -8.906584794471176
      ],
      [
        "asi",
        -8.906772233645238
      ],
      [
        "▁fokus",
        -8.906858437103367
      ],
      [
        "▁guru",
        -8.908012523327852
      ],
      [
        "▁memakai",
        -8.908217091059718
      ],
      [
        "▁nyata",
        -8.909109039355759
      ],
      [
        "▁promo",
        -8.90972863688585
      ],
      [
        "▁ditawarkan",
        -8.910386048293443
      ],
      [
        "▁berupa",
        -8.910870606371063
      ],
      [
        "▁lawan",
        -8.914159037225481
      ],
      [
        "▁menulis",
        -8.91470898017289
      ],
      [
        "▁manajemen",
        -8.91590494650121
      ],
      [
        "▁herbal",
        -8.917158864073519
      ],
      [
        "▁kode",
        -8.919516049716483
      ],
      [
        "▁lokal",
        -8.919701376680274
      ],
      [
        "▁selesai",
        -8.919846681508051
      ],
      [
        "▁trik",
        -8.919926167936222
      ],
      [
        "▁turun",
        -8.922978036639364
      ],
      [
        "▁ku",
        -8.924490000290183
      ],
      [
        "▁nggak",
        -8.924926250029918
      ],
      [
        "▁dianggap",
        -8.926970513681917
      ],
      [
        "▁ikut",
        -8.927922166147646
      ],
      [
        "▁laptop",
        -8.927959528930117
      ],
      [
        "▁batu",
        -8.928304596516913
      ],
      [
        "▁kunci",
        -8.928741708414504
      ],
      [
        "▁dimiliki",
        -8.929045091236551
      ],
      [
        "▁lupa",
        -8.931123092105643
      ],
      [
        "▁kekuatan",
        -8.933845848186385
      ],
      [
        "▁artinya",
        -8.934313099603092
      ],
      [
        "▁mendaftar",
        -8.934555612685346
      ],
      [
        ">",
        -8.935400490204039
      ],
      [
        "▁tipe",
        -8.937240026410304
      ],
      [
        "▁tugas",
        -8.937553694324125
      ],
      [
        "▁yakin",
        -8.937773271428535
      ],
      [
        "▁tergantung",
        -8.938621208525225
      ],
      [
        "▁menuju",
        -8.938830559931477
      ],
      [
        "▁cerita",
        -8.940416594904192
      ],
      [
        "▁pembuatan",
        -8.940635985695739
      ],
      [
        "▁tertarik",
        -8.941470544456953
      ],
      [
        "▁berharap",
        -8.941730266556625
      ],
      [
        "▁mengubah",
        -8.942729156821828
      ],
      [
        "▁karyawan",
        -8.947427890679236
      ],
      [
        "▁asuransi",
        -8.94829842018575
      ],
      [
        "▁h",
        -8.948835237563767
      ],
      [
        "▁liga",
        -8.949868769202784
      ],
      [
        "▁ditemukan",
        -8.950368248365528
      ],
      [
        "kah",
        -8.950693917752224
      ],
      [
        "▁asal",
        -8.951406179236299
      ],
      [
        "▁operasi",
        -8.951600041363111
      ],
      [
        "▁pengetahuan",
        -8.951873320794821
      ],
      [
        "▁olymp",
        -8.952725772242173
      ],
      [
        "▁target",
        -8.95412872130941
      ],
      [
        "▁pengunjung",
        -8.955978911543518
      ],
      [
        "▁belakang",
        -8.95774359051573
      ],
      [
        "▁mengurangi",
        -8.958793540083422
      ],
      [
        "▁emas",
        -8.964310822420126
      ],
      [
        "▁menambahkan",
        -8.965086987750883
      ],
      [
        "▁berubah",
        -8.965540046975773
      ],
      [
        "▁kebanyakan",
        -8.966954839850006
      ],
      [
        "▁level",
        -8.96707982227358
      ],
      [
        "▁peng",
        -8.968276307616101
      ],
      [
        "▁kasih",
        -8.96887326222838
      ],
      [
        "▁options",
        -8.96938055392607
      ],
      [
        "▁rencana",
        -8.97056298900299
      ],
      [
        "▁soal",
        -8.971057287228046
      ],
      [
        "▁konsep",
        -8.972259853293526
      ],
      [
        "▁penis",
        -8.972347598258395
      ],
      [
        "▁berikan",
        -8.977660600316336
      ],
      [
        "ang",
        -8.978844021469076
      ],
      [
        "▁alternatif",
        -8.97899018003002
      ],
      [
        "▁memutuskan",
        -8.979553604023252
      ],
      [
        "▁menambah",
        -8.980730916773235
      ],
      [
        "▁khawatir",
        -8.982694971838164
      ],
      [
        "▁sobat",
        -8.982807471208279
      ],
      [
        "▁tiket",
        -8.982877294830098
      ],
      [
        "or",
        -8.983688275783269
      ],
      [
        "▁kopi",
        -8.983704057615206
      ],
      [
        "▁rekening",
        -8.98461095283373
      ],
      [
        "▁kelebihan",
        -8.986778273721074
      ],
      [
        "▁karakter",
        -8.987854060868708
      ],
      [
        "▁merasakan",
        -8.988025377310594
      ],
      [
        "▁potensi",
        -8.988670007550494
      ],
      [
        "▁perempuan",
        -8.992275997776215
      ],
      [
        "▁promosi",
        -8.993680273138978
      ],
      [
        "▁dukungan",
        -8.994128544229739
      ],
      [
        "▁rambut",
        -8.995988372304875
      ],
      [
        "▁sebanyak",
        -8.996043453159665
      ],
      [
        "▁buka",
        -8.997345548319617
      ],
      [
        "▁v",
        -8.997350750537262
      ],
      [
        "▁menjelaskan",
        -8.998700785895798
      ],
      [
        "▁khususnya",
        -9.001377821908813
      ],
      [
        "▁kerugian",
        -9.002634658876204
      ],
      [
        "▁kesalahan",
        -9.004482640694894
      ],
      [
        "la",
        -9.004977643977575
      ],
      [
        "▁software",
        -9.005101703422117
      ],
      [
        "=",
        -9.005390622949283
      ],
      [
        "▁calon",
        -9.006093963313633
      ],
      [
        "▁up",
        -9.00743809999117
      ],
      [
        "▁penulis",
        -9.009618744979289
      ],
      [
        "▁ribu",
        -9.010732749257633
      ],
      [
        "▁tuhan",
        -9.012019984447605
      ],
      [
        "▁menunggu",
        -9.012199578174252
      ],
      [
        "▁barat",
        -9.012423302160531
      ],
      [
        "▁pemilik",
        -9.012931753537003
      ],
      [
        "▁jepang",
        -9.014081994542927
      ],
      [
        "▁meningkat",
        -9.014090762408491
      ],
      [
        "▁merah",
        -9.01511465362797
      ],
      [
        "▁kendaraan",
        -9.016833814982483
      ],
      [
        "▁isi",
        -9.01725864629914
      ],
      [
        "▁play",
        -9.017479959552649
      ],
      [
        "▁musik",
        -9.019187326374016
      ],
      [
        "▁kenapa",
        -9.01939856864498
      ],
      [
        "ber",
        -9.020092811267752
      ],
      [
        "▁lagu",
        -9.022253701082713
      ],
      [
        "▁situasi",
        -9.023321774816292
      ],
      [
        "▁kebijakan",
        -9.023469492740618
      ],
      [
        "▁pc",
        -9.024076026946627
      ],
      [
        "▁lunak",
        -9.02567293408904
      ],
      [
        "▁keadaan",
        -9.027166422311296
      ],
      [
        "▁arah",
        -9.027760754798198
      ],
      [
        "▁mengembangkan",
        -9.028172571237093
      ],
      [
        "▁go",
        -9.033361449002076
      ],
      [
        "▁bergerak",
        -9.034519928107247
      ],
      [
        "▁disediakan",
        -9.03457572790646
      ],
      [
        "▁panas",
        -9.034603099995296
      ],
      [
        "▁free",
        -9.036065670442746
      ],
      [
        "▁proyek",
        -9.03904451981891
      ],
      [
        "▁covid",
        -9.04037081015626
      ],
      [
        "▁tanda",
        -9.041883082839622
      ],
      [
        "▁islam",
        -9.04273918733746
      ],
      [
        "▁ulasan",
        -9.04325431657961
      ],
      [
        "▁padahal",
        -9.044007527002217
      ],
      [
        "▁kaki",
        -9.046186142952244
      ],
      [
        "▁dimulai",
        -9.046732602145978
      ],
      [
        "▁menciptakan",
        -9.047197002196633
      ],
      [
        "▁november",
        -9.04722481228359
      ],
      [
        "▁ahli",
        -9.04742017619573
      ],
      [
        "▁april",
        -9.049036864356983
      ],
      [
        "▁modern",
        -9.050195623904612
      ],
      [
        "▁september",
        -9.051150043976191
      ],
      [
        "▁listrik",
        -9.052481002547216
      ],
      [
        "▁demi",
        -9.05313877064431
      ],
      [
        "▁dilihat",
        -9.05349640738542
      ],
      [
        "▁pakai",
        -9.056103652530137
      ],
      [
        "▁kan",
        -9.059844793787262
      ],
      [
        "▁minimal",
        -9.06021808479827
      ],
      [
        "▁server",
        -9.060486556290734
      ],
      [
        "▁garis",
        -9.064151805707995
      ],
      [
        "▁syarat",
        -9.065105297894682
      ],
      [
        "▁panduan",
        -9.065673660300684
      ],
      [
        "▁batas",
        -9.066315961266817
      ],
      [
        "▁akibat",
        -9.067200763861766
      ],
      [
        "▁ma",
        -9.067746621564275
      ],
      [
        "▁menjadikan",
        -9.068666099745954
      ],
      [
        "▁tenaga",
        -9.070862599842677
      ],
      [
        "▁turnamen",
        -9.073314479913412
      ],
      [
        "▁perhatian",
        -9.076072153917798
      ],
      [
        "▁mengatur",
        -9.07814973128169
      ],
      [
        "▁dibawah",
        -9.078640237213012
      ],
      [
        "▁gak",
        -9.078948354899898
      ],
      [
        "▁memasang",
        -9.079957330158804
      ],
      [
        "▁pembangunan",
        -9.081271990772084
      ],
      [
        "▁tumbuh",
        -9.084499374639757
      ],
      [
        "▁asing",
        -9.086103369880622
      ],
      [
        "▁wa",
        -9.08831961080029
      ],
      [
        "▁penghasilan",
        -9.088478987148996
      ],
      [
        "▁bakal",
        -9.089437594098722
      ],
      [
        "▁rata",
        -9.089895182245357
      ],
      [
        "▁berusaha",
        -9.09087325917494
      ],
      [
        "▁pulau",
        -9.091160605899972
      ],
      [
        "▁mahal",
        -9.091259532561867
      ],
      [
        "▁timur",
        -9.092403012637964
      ],
      [
        "▁organisasi",
        -9.092403877937487
      ],
      [
        "▁mempelajari",
        -9.095161505990854
      ],
      [
        "▁terima",
        -9.097025372424556
      ],
      [
        "▁tiba",
        -9.097815049685773
      ],
      [
        "▁asia",
        -9.097820185524856
      ],
      [
        "▁apk",
        -9.099731473660652
      ],
      [
        "▁surat",
        -9.099945046762617
      ],
      [
        "▁ulang",
        -9.101571479249328
      ],
      [
        "▁laporan",
        -9.102669878269555
      ],
      [
        "▁komentar",
        -9.107944952901615
      ],
      [
        "▁favorit",
        -9.11119155661314
      ],
      [
        "▁binomo",
        -9.112778839824069
      ],
      [
        "▁fisik",
        -9.113232205542282
      ],
      [
        "▁cinta",
        -9.11337326172958
      ],
      [
        "▁pemasaran",
        -9.114177894933237
      ],
      [
        "▁kamera",
        -9.115938322390148
      ],
      [
        "▁berlaku",
        -9.116411939514776
      ],
      [
        "▁terasa",
        -9.11866976358232
      ],
      [
        "▁penyebab",
        -9.1189251692529
      ],
      [
        "pun",
        -9.119862675198236
      ],
      [
        "rata",
        -9.121397877659083
      ],
      [
        "▁id",
        -9.122567688142322
      ],
      [
        "▁minyak",
        -9.122660355260402
      ],
      [
        "▁ruangan",
        -9.123729464115462
      ],
      [
        "▁penyedia",
        -9.124727768107135
      ],
      [
        "▁butuh",
        -9.124872332753494
      ],
      [
        "▁internasional",
        -9.125546716239436
      ],
      [
        "▁perawatan",
        -9.127185963497691
      ],
      [
        "▁terdiri",
        -9.127324649379304
      ],
      [
        "bet",
        -9.12846307769883
      ],
      [
        "▁super",
        -9.128931123005804
      ],
      [
        "▁pertumbuhan",
        -9.13036239829382
      ],
      [
        "▁virus",
        -9.130455191747512
      ],
      [
        "▁tombol",
        -9.133421435172558
      ],
      [
        "▁indah",
        -9.13501975648992
      ],
      [
        "▁pagi",
        -9.135657456069296
      ],
      [
        "▁berbasis",
        -9.136436520668964
      ],
      [
        "▁senang",
        -9.139200719251695
      ],
      [
        "▁dijadikan",
        -9.139570601271332
      ],
      [
        "▁melawan",
        -9.140688421987516
      ],
      [
        "▁dipakai",
        -9.142139023111858
      ],
      [
        "▁rupiah",
        -9.142457842163102
      ],
      [
        "▁duduk",
        -9.142869157127045
      ],
      [
        "▁kalangan",
        -9.14317374972224
      ],
      [
        "▁demo",
        -9.143283755299406
      ],
      [
        "▁kategori",
        -9.143758182518011
      ],
      [
        "▁mengisi",
        -9.145148417080328
      ],
      [
        "▁tindakan",
        -9.147446681083863
      ],
      [
        "▁standar",
        -9.148162672909256
      ],
      [
        "▁pengobatan",
        -9.150185370752066
      ],
      [
        "▁memudahkan",
        -9.1504726790426
      ],
      [
        "▁justru",
        -9.150996505097025
      ],
      [
        "▁tas",
        -9.153439346135912
      ],
      [
        "▁berlangsung",
        -9.153817615132656
      ],
      [
        "▁sel",
        -9.154893040995672
      ],
      [
        "▁membahas",
        -9.155133729709789
      ],
      [
        "▁walaupun",
        -9.157115487318878
      ],
      [
        "▁biner",
        -9.15767474893739
      ],
      [
        "▁titik",
        -9.158620452672958
      ],
      [
        "▁mengunjungi",
        -9.159590745918797
      ],
      [
        "▁bertanya",
        -9.160471078587596
      ],
      [
        "▁tadi",
        -9.160537217995396
      ],
      [
        "▁samping",
        -9.161933621592915
      ],
      [
        "▁selatan",
        -9.16341570788282
      ],
      [
        "▁mengingat",
        -9.163868448927442
      ],
      [
        "▁sejarah",
        -9.164185668493548
      ],
      [
        "▁sih",
        -9.164211748051022
      ],
      [
        "▁dini",
        -9.164504726380564
      ],
      [
        "▁roulette",
        -9.164649202762432
      ],
      [
        "▁pendapatan",
        -9.1654925316477
      ],
      [
        "▁presiden",
        -9.165638637106737
      ],
      [
        "▁ingat",
        -9.167989279176773
      ],
      [
        "▁memerlukan",
        -9.168779161882131
      ],
      [
        "▁tema",
        -9.169457218727516
      ],
      [
        "▁sepak",
        -9.16958885369356
      ],
      [
        "▁new",
        -9.17170212145002
      ],
      [
        "▁komunitas",
        -9.17245614283874
      ],
      [
        "▁melakukannya",
        -9.172988292676724
      ],
      [
        "▁setidaknya",
        -9.173419064326485
      ],
      [
        "ha",
        -9.174102558480737
      ],
      [
        "▁energi",
        -9.174748148407009
      ],
      [
        "▁cek",
        -9.175029438945169
      ],
      [
        "▁mencegah",
        -9.175285883293654
      ],
      [
        "▁cuma",
        -9.17564552921398
      ],
      [
        "▁youtube",
        -9.176080996043378
      ],
      [
        "▁terbuka",
        -9.17743403814552
      ],
      [
        "▁investor",
        -9.178096531135008
      ],
      [
        "▁dikatakan",
        -9.178149445667394
      ],
      [
        "▁berhenti",
        -9.181743239623112
      ],
      [
        "▁berguna",
        -9.182289912056628
      ],
      [
        "ja",
        -9.182313512216696
      ],
      [
        "▁menghindari",
        -9.1823934548604
      ],
      [
        "▁komunikasi",
        -9.183619949225092
      ],
      [
        "▁tv",
        -9.18525996439125
      ],
      [
        "▁inginkan",
        -9.18588566439101
      ],
      [
        "▁terkadang",
        -9.186686825249293
      ],
      [
        "▁mengenal",
        -9.1885128876589
      ],
      [
        "▁at",
        -9.190510657833345
      ],
      [
        "▁keinginan",
        -9.191342006513718
      ],
      [
        "▁sepanjang",
        -9.191796820645292
      ],
      [
        "▁pas",
        -9.192148724500749
      ],
      [
        "▁la",
        -9.192306983710791
      ],
      [
        "▁berbicara",
        -9.19360297037466
      ],
      [
        "▁tulisan",
        -9.194751980115145
      ],
      [
        "▁qq",
        -9.194925579913388
      ],
      [
        "▁terbukti",
        -9.195479532937664
      ],
      [
        "▁marketing",
        -9.19801229961793
      ],
      [
        "▁alamat",
        -9.198669807184194
      ],
      [
        "▁ri",
        -9.199017468156407
      ],
      [
        "▁ga",
        -9.19977539728808
      ],
      [
        "▁login",
        -9.199799774816624
      ],
      [
        "▁iq",
        -9.19992064881227
      ],
      [
        "_",
        -9.20031192275612
      ],
      [
        "▁bersih",
        -9.201700863938976
      ],
      [
        "▁temukan",
        -9.20192212278518
      ],
      [
        "▁jarang",
        -9.202219763956318
      ],
      [
        "▁terbatas",
        -9.204777296195212
      ],
      [
        "▁pasien",
        -9.204959962626544
      ],
      [
        "▁namanya",
        -9.205039041283351
      ],
      [
        "▁bangunan",
        -9.205595709174665
      ],
      [
        "▁upaya",
        -9.206140679158162
      ],
      [
        "▁milik",
        -9.208584448455207
      ],
      [
        "▁singapura",
        -9.208680155173068
      ],
      [
        "▁tanaman",
        -9.210228133804154
      ],
      [
        "▁bali",
        -9.210619742070756
      ],
      [
        "tan",
        -9.211619084446
      ],
      [
        "▁su",
        -9.212243717367732
      ],
      [
        "▁pikiran",
        -9.212264298381951
      ],
      [
        "▁transfer",
        -9.212318336896388
      ],
      [
        "▁wib",
        -9.215909691290872
      ],
      [
        "▁singkat",
        -9.217099834621669
      ],
      [
        "men",
        -9.217255755167232
      ],
      [
        "▁tradisional",
        -9.217565874402643
      ],
      [
        "▁via",
        -9.21822988621518
      ],
      [
        "▁mengeluarkan",
        -9.219466194490757
      ],
      [
        "▁malah",
        -9.219628877299913
      ],
      [
        "▁sambil",
        -9.220034131964892
      ],
      [
        "▁kayu",
        -9.222993444131616
      ],
      [
        "▁kaya",
        -9.223487993577582
      ],
      [
        "▁penawaran",
        -9.223658809031743
      ],
      [
        "▁dijual",
        -9.224079238235904
      ],
      [
        "▁berbagi",
        -9.224234738757454
      ],
      [
        "▁gigi",
        -9.22542957567708
      ],
      [
        "▁kesulitan",
        -9.227142150876832
      ],
      [
        "▁takut",
        -9.227448436782064
      ],
      [
        "▁gejala",
        -9.22756808712418
      ],
      [
        "▁pengiriman",
        -9.227716546059511
      ],
      [
        "▁banget",
        -9.22837652496021
      ],
      [
        "▁karya",
        -9.236220662387288
      ],
      [
        "net",
        -9.2371212178652
      ],
      [
        "▁aset",
        -9.237763419283867
      ],
      [
        "▁tren",
        -9.2384170541953
      ],
      [
        "▁kenyamanan",
        -9.239274224044744
      ],
      [
        "▁keunggulan",
        -9.239338042983462
      ],
      [
        "▁kemudahan",
        -9.240995158487356
      ],
      [
        "▁seharusnya",
        -9.241415399062682
      ],
      [
        "▁eropa",
        -9.241875631577056
      ],
      [
        "▁real",
        -9.242375291506107
      ],
      [
        "▁katanya",
        -9.242986460809105
      ],
      [
        "▁klien",
        -9.24328828162708
      ],
      [
        "▁putaran",
        -9.24372179984736
      ],
      [
        "▁selamat",
        -9.2437819978263
      ],
      [
        "▁so",
        -9.244231663536503
      ],
      [
        "▁review",
        -9.245771202129362
      ],
      [
        "▁kinerja",
        -9.248219650735054
      ],
      [
        "▁update",
        -9.250505702753374
      ],
      [
        "hati",
        -9.25059841132407
      ],
      [
        "▁cenderung",
        -9.250801238895717
      ],
      [
        "▁aja",
        -9.251134278582096
      ],
      [
        "▁tampil",
        -9.252299192543656
      ],
      [
        "▁kombinasi",
        -9.252585936274237
      ],
      [
        "▁it",
        -9.252723647905594
      ],
      [
        "▁menyimpan",
        -9.25372823007326
      ],
      [
        "▁gagal",
        -9.255466304101937
      ],
      [
        "▁hak",
        -9.256360676364103
      ],
      [
        "ung",
        -9.2567309894259
      ],
      [
        "▁dipilih",
        -9.25719648557558
      ],
      [
        "▁pengembangan",
        -9.257513035639208
      ],
      [
        "▁tahap",
        -9.257788788069726
      ],
      [
        "▁peningkatan",
        -9.257960054563837
      ],
      [
        "▁bernama",
        -9.259263799748895
      ],
      [
        "▁sempat",
        -9.259376948778293
      ],
      [
        "▁jarak",
        -9.261351066099014
      ],
      [
        "▁diharapkan",
        -9.261505055347492
      ],
      [
        "▁rekomendasi",
        -9.26182760103969
      ],
      [
        "▁ketua",
        -9.262714671992851
      ],
      [
        "▁sebagainya",
        -9.26372696575762
      ],
      [
        "▁normal",
        -9.263730650891851
      ],
      [
        "▁tiap",
        -9.264056347234968
      ],
      [
        "▁whatsapp",
        -9.266231948959389
      ],
      [
        "▁pelaku",
        -9.266236887284292
      ],
      [
        "▁udara",
        -9.266272713222468
      ],
      [
        "▁dewasa",
        -9.267024223743162
      ],
      [
        "▁pajak",
        -9.268267382456909
      ],
      [
        "▁pasaran",
        -9.270785781616423
      ],
      [
        "dan",
        -9.27219780808005
      ],
      [
        "▁fakta",
        -9.272348765360722
      ],
      [
        "▁menerapkan",
        -9.275139259959364
      ],
      [
        "▁baju",
        -9.275709970024684
      ],
      [
        "▁service",
        -9.275763589753003
      ],
      [
        "▁istilah",
        -9.276787474379264
      ],
      [
        "▁hitam",
        -9.277724141936522
      ],
      [
        "▁mi",
        -9.279434181285064
      ],
      [
        "▁menghabiskan",
        -9.281245876762746
      ],
      [
        "▁menghadapi",
        -9.281710024725024
      ],
      [
        "▁gaming",
        -9.282172612544938
      ],
      [
        "lan",
        -9.282239558230572
      ],
      [
        "▁kecepatan",
        -9.282694958762068
      ],
      [
        "▁bandung",
        -9.282802927469511
      ],
      [
        "▁universitas",
        -9.284459258830106
      ],
      [
        "▁perhatikan",
        -9.28675145885859
      ],
      [
        "▁bettor",
        -9.287596152048463
      ],
      [
        "▁pemenang",
        -9.288482791519064
      ],
      [
        "▁ringan",
        -9.290329481881212
      ],
      [
        "▁agama",
        -9.291121416576091
      ],
      [
        "▁pakaian",
        -9.292091537843218
      ],
      [
        "▁sa",
        -9.292818637081032
      ],
      [
        "▁analisis",
        -9.29295665076804
      ],
      [
        "▁hasilnya",
        -9.29425094980763
      ],
      [
        "▁minum",
        -9.29523354581994
      ],
      [
        "apa",
        -9.295673176999848
      ],
      [
        "▁j",
        -9.2968444761781
      ],
      [
        "▁bertahan",
        -9.297199876255297
      ],
      [
        "▁top",
        -9.29759362355816
      ],
      [
        "▁mengakses",
        -9.298672702301012
      ],
      [
        "yang",
        -9.301803859986986
      ],
      [
        "▁tahan",
        -9.302478050763884
      ],
      [
        "▁budaya",
        -9.30452273385375
      ],
      [
        "▁berhubungan",
        -9.305211567424388
      ],
      [
        "▁sempurna",
        -9.305792935627952
      ],
      [
        "saya",
        -9.307284309708663
      ],
      [
        "teman",
        -9.308345100228609
      ],
      [
        "▁dampak",
        -9.30924705462816
      ],
      [
        "▁mendengar",
        -9.309701828149104
      ],
      [
        "▁saling",
        -9.309857859216187
      ],
      [
        "▁tampak",
        -9.309928496756529
      ],
      [
        "▁gampang",
        -9.309936160819191
      ],
      [
        "sama",
        -9.311741993529214
      ],
      [
        "▁menampilkan",
        -9.311774019966816
      ],
      [
        "▁mengandung",
        -9.31190335126564
      ],
      [
        "▁sinyal",
        -9.3127462780081
      ],
      [
        "▁simak",
        -9.312845091983702
      ],
      [
        "▁pinjaman",
        -9.314483316013876
      ],
      [
        "▁telepon",
        -9.315341663222032
      ],
      [
        "▁resiko",
        -9.315346793847633
      ],
      [
        "wa",
        -9.317460545162058
      ],
      [
        "▁robot",
        -9.317482900149905
      ],
      [
        "▁periode",
        -9.318726257784087
      ],
      [
        "▁kandungan",
        -9.320805822885545
      ],
      [
        "▁layak",
        -9.321717537194385
      ],
      [
        "lo",
        -9.32192418516066
      ],
      [
        "▁caranya",
        -9.3221208797015
      ],
      [
        "▁melayani",
        -9.322479106105408
      ],
      [
        "▁dilengkapi",
        -9.32397192116398
      ],
      [
        "▁minuman",
        -9.324977951423682
      ],
      [
        "▁menyatakan",
        -9.325028489909458
      ],
      [
        "▁pembelian",
        -9.325858584610309
      ],
      [
        "▁windows",
        -9.325901472809177
      ],
      [
        "▁susu",
        -9.327582898202389
      ],
      [
        "▁bertemu",
        -9.328123192332251
      ],
      [
        "han",
        -9.328658684598787
      ],
      [
        "▁kontak",
        -9.32915701899991
      ],
      [
        "▁analisa",
        -9.32978789036352
      ],
      [
        "▁belanja",
        -9.331372219070795
      ],
      [
        "▁menyelesaikan",
        -9.332181115639754
      ],
      [
        "▁berfungsi",
        -9.33268348614703
      ],
      [
        "▁ka",
        -9.333563910968518
      ],
      [
        "▁keterampilan",
        -9.334561311441192
      ],
      [
        "▁mati",
        -9.334752121662754
      ],
      [
        "▁memperhatikan",
        -9.334847782986987
      ],
      [
        "be",
        -9.335316248652488
      ],
      [
        "tor",
        -9.335390067849923
      ],
      [
        "▁peran",
        -9.33649560463506
      ],
      [
        "▁te",
        -9.336814404573342
      ],
      [
        "q",
        -9.337135415370106
      ],
      [
        "▁tangga",
        -9.337785393009485
      ],
      [
        "▁kadang",
        -9.339171234972872
      ],
      [
        "▁harapan",
        -9.33933790093848
      ],
      [
        "▁sebaliknya",
        -9.340416215317637
      ],
      [
        "▁untung",
        -9.345980128759358
      ],
      [
        "▁laga",
        -9.346800119984367
      ],
      [
        "▁non",
        -9.347116649890104
      ],
      [
        "▁global",
        -9.347454472016508
      ],
      [
        "▁laut",
        -9.347480895198537
      ],
      [
        "▁set",
        -9.347654658645691
      ],
      [
        "▁market",
        -9.348091511207976
      ],
      [
        "▁es",
        -9.349144312143675
      ],
      [
        "▁hebat",
        -9.350339894053349
      ],
      [
        "▁khas",
        -9.351401892733142
      ],
      [
        "▁gangguan",
        -9.351911774915171
      ],
      [
        "▁bukanlah",
        -9.352087342825843
      ],
      [
        "▁pandemi",
        -9.354858243842736
      ],
      [
        "▁provinsi",
        -9.358956018729245
      ],
      [
        "▁dr",
        -9.361797156382057
      ],
      [
        "▁pencarian",
        -9.362419968139582
      ],
      [
        "▁anti",
        -9.362570014870576
      ],
      [
        "▁hilang",
        -9.363974921078466
      ],
      [
        "▁merek",
        -9.364742581829052
      ],
      [
        "▁materi",
        -9.36519619446911
      ],
      [
        "▁unit",
        -9.365672503533824
      ],
      [
        "▁chip",
        -9.367692067588
      ],
      [
        "▁bingung",
        -9.367752263086214
      ],
      [
        "ini",
        -9.368506687790198
      ],
      [
        "▁spesifikasi",
        -9.368834091472309
      ],
      [
        "▁makin",
        -9.368837248429214
      ],
      [
        "▁politik",
        -9.369137613738388
      ],
      [
        "▁seo",
        -9.369169592793233
      ],
      [
        "▁terjangkau",
        -9.36981518967742
      ],
      [
        "▁da",
        -9.369917133061024
      ],
      [
        "▁rahasia",
        -9.370540814558863
      ],
      [
        "▁detail",
        -9.370927902863976
      ],
      [
        "▁bar",
        -9.371063340593157
      ],
      [
        "▁serius",
        -9.371301545261254
      ],
      [
        "▁player",
        -9.374547852716686
      ],
      [
        "▁surabaya",
        -9.375160288863356
      ],
      [
        "▁awalnya",
        -9.37613106725461
      ],
      [
        "▁mempengaruhi",
        -9.37763399284819
      ],
      [
        "▁penjelasan",
        -9.377662185024468
      ],
      [
        "▁dealer",
        -9.379678357432043
      ],
      [
        "ca",
        -9.380273286833654
      ],
      [
        "▁publik",
        -9.380461485300726
      ],
      [
        "▁liburan",
        -9.380647259023856
      ],
      [
        "▁didapatkan",
        -9.381567113146176
      ],
      [
        "▁seru",
        -9.381827112776998
      ],
      [
        "▁mandiri",
        -9.382328833540315
      ],
      [
        "▁guna",
        -9.38237548592012
      ],
      [
        "▁co",
        -9.382513577158493
      ],
      [
        "▁bikin",
        -9.382669316601172
      ],
      [
        "—",
        -9.384241753780849
      ],
      [
        "▁lembaga",
        -9.384501005099224
      ],
      [
        "▁jatuh",
        -9.385148869806777
      ],
      [
        "▁mari",
        -9.38564249979802
      ],
      [
        "▁blackjack",
        -9.38640079928068
      ],
      [
        "▁keduanya",
        -9.387530262768724
      ],
      [
        "▁ciri",
        -9.388405955191915
      ],
      [
        "▁w",
        -9.389030331391329
      ],
      [
        "▁dikarenakan",
        -9.390492855422838
      ],
      [
        "▁meninggalkan",
        -9.390880447215803
      ],
      [
        "▁diantaranya",
        -9.391389342221952
      ],
      [
        "▁klub",
        -9.393337634325682
      ],
      [
        "▁cantik",
        -9.39444675489094
      ],
      [
        "▁pen",
        -9.397204830050793
      ],
      [
        "bo",
        -9.39902926604657
      ],
      [
        "▁vs",
        -9.399183247130832
      ],
      [
        "▁jadwal",
        -9.400884621044446
      ],
      [
        "ba",
        -9.40282795571709
      ],
      [
        "▁dll",
        -9.402836681842048
      ],
      [
        "▁anggaran",
        -9.40308230837127
      ],
      [
        "ch",
        -9.404816740356646
      ],
      [
        "▁bangsa",
        -9.405146500765268
      ],
      [
        "▁diterima",
        -9.405296482942736
      ],
      [
        "▁posted",
        -9.406115276890684
      ],
      [
        "▁menonton",
        -9.406653044504676
      ],
      [
        "▁membuatnya",
        -9.40977232744685
      ],
      [
        "▁mengelola",
        -9.411483816337892
      ],
      [
        "▁time",
        -9.413462518991112
      ],
      [
        "▁latihan",
        -9.414367904982234
      ],
      [
        "▁otak",
        -9.4152279291639
      ],
      [
        "▁tutorial",
        -9.418439179199462
      ],
      [
        "▁semangat",
        -9.418881962915442
      ],
      [
        "▁banyaknya",
        -9.419376221196533
      ],
      [
        "▁tamu",
        -9.419778419472518
      ],
      [
        "▁lantai",
        -9.420410698092985
      ],
      [
        "▁koneksi",
        -9.421534542735678
      ],
      [
        "▁menghilangkan",
        -9.422255763538049
      ],
      [
        "▁korban",
        -9.42261801245392
      ],
      [
        "▁may",
        -9.42326356542793
      ],
      [
        "▁mendorong",
        -9.426326388956324
      ],
      [
        "▁ta",
        -9.426562827212909
      ],
      [
        "▁penjual",
        -9.42676648168885
      ],
      [
        "▁mas",
        -9.428801727633696
      ],
      [
        "▁seri",
        -9.43042874489197
      ],
      [
        "▁taman",
        -9.43062278978296
      ],
      [
        "▁dasarnya",
        -9.431016317579038
      ],
      [
        "▁pelatihan",
        -9.431715463807974
      ],
      [
        "▁ujar",
        -9.433635366460535
      ],
      [
        "▁tau",
        -9.434635371641413
      ],
      [
        "▁bukti",
        -9.434737643272223
      ],
      [
        "▁ko",
        -9.43510882877036
      ],
      [
        "▁do",
        -9.437070017471791
      ],
      [
        "▁utara",
        -9.437082101367366
      ],
      [
        "▁seputar",
        -9.43822690761904
      ],
      [
        "▁kapasitas",
        -9.439446797444273
      ],
      [
        "▁texas",
        -9.44160355912749
      ],
      [
        "▁disebabkan",
        -9.441621038472691
      ],
      [
        "▁customer",
        -9.44188153100657
      ],
      [
        "▁aksi",
        -9.442358362186653
      ],
      [
        "▁individu",
        -9.442608357376796
      ],
      [
        "▁ba",
        -9.443252742359231
      ],
      [
        "▁praktis",
        -9.44413879887732
      ],
      [
        "▁hiburan",
        -9.446845550052492
      ],
      [
        "▁menyadari",
        -9.449526245540724
      ],
      [
        "▁keren",
        -9.451754779480922
      ],
      [
        "▁trend",
        -9.452211943343874
      ],
      [
        "▁pergerakan",
        -9.452430065157198
      ],
      [
        "▁semacam",
        -9.452474201955086
      ],
      [
        "▁mo",
        -9.453371066411956
      ],
      [
        "▁kabar",
        -9.453426452452808
      ],
      [
        "▁pintu",
        -9.453836170817477
      ],
      [
        "▁gunung",
        -9.453951522847726
      ],
      [
        "▁zaman",
        -9.454296177731852
      ],
      [
        "▁studi",
        -9.455212010444916
      ],
      [
        "▁agak",
        -9.45558761467911
      ],
      [
        "▁penggemar",
        -9.456335628053036
      ],
      [
        "▁dolar",
        -9.456605945831102
      ],
      [
        "▁kekurangan",
        -9.457035102763545
      ],
      [
        "▁am",
        -9.457335418365592
      ],
      [
        "ada",
        -9.458152434132163
      ],
      [
        "▁istri",
        -9.458559919382273
      ],
      [
        "▁pembeli",
        -9.459407077318478
      ],
      [
        "▁all",
        -9.459558524138696
      ],
      [
        "▁minimalis",
        -9.462221794142906
      ],
      [
        "▁hewan",
        -9.46297731897012
      ],
      [
        "▁line",
        -9.463405662152391
      ],
      [
        "▁akurat",
        -9.463415215716838
      ],
      [
        "▁mirip",
        -9.463865978539284
      ],
      [
        "▁generasi",
        -9.46463394341949
      ],
      [
        "▁menghubungi",
        -9.465094571302192
      ],
      [
        "▁comments",
        -9.465625780893838
      ],
      [
        "▁suami",
        -9.465817955169234
      ],
      [
        "▁pukul",
        -9.467555239609114
      ],
      [
        "▁more",
        -9.469772831847886
      ],
      [
        "▁gol",
        -9.46985512988658
      ],
      [
        "▁catatan",
        -9.475004535649278
      ],
      [
        "▁berdiri",
        -9.475037014208327
      ],
      [
        "▁keberuntungan",
        -9.47548407914894
      ],
      [
        "▁ialah",
        -9.476263565687002
      ],
      [
        "▁tertinggi",
        -9.478043998711913
      ],
      [
        "▁menempatkan",
        -9.478534401516786
      ],
      [
        "▁diet",
        -9.4791173608012
      ],
      [
        "▁man",
        -9.480709005636578
      ],
      [
        "▁berakhir",
        -9.48463580173894
      ],
      [
        "▁berkaitan",
        -9.484773291485835
      ],
      [
        "▁mengobati",
        -9.485250093142843
      ],
      [
        "▁menyukai",
        -9.4879440012265
      ],
      [
        "▁laki",
        -9.48831967582812
      ],
      [
        "▁mengerti",
        -9.488347924250135
      ],
      [
        "▁sektor",
        -9.489321846251524
      ],
      [
        "▁antar",
        -9.49010080270844
      ],
      [
        "▁tenang",
        -9.491091311778709
      ],
      [
        "▁gacor",
        -9.491740183132062
      ],
      [
        "▁mimpi",
        -9.49285916155665
      ],
      [
        "▁tunai",
        -9.493759133530082
      ],
      [
        "▁januari",
        -9.493976444021593
      ],
      [
        "▁simbol",
        -9.49402490041014
      ],
      [
        "ling",
        -9.494481078262144
      ],
      [
        "▁aspek",
        -9.49510498540371
      ],
      [
        "▁permintaan",
        -9.49625383475137
      ],
      [
        "ol",
        -9.496381443393254
      ],
      [
        "▁gerakan",
        -9.497373928837266
      ],
      [
        "▁sepeda",
        -9.497549641346788
      ],
      [
        "▁jalur",
        -9.497989460299666
      ],
      [
        "pen",
        -9.500702734959336
      ],
      [
        "▁jantung",
        -9.500802140648917
      ],
      [
        "▁na",
        -9.500838474200068
      ],
      [
        "▁brand",
        -9.50121944594414
      ],
      [
        "▁kisah",
        -9.50201341180638
      ],
      [
        "▁konsumsi",
        -9.50205091669613
      ],
      [
        "▁with",
        -9.502230680450102
      ],
      [
        "▁pendek",
        -9.502538133005846
      ],
      [
        "▁arti",
        -9.504132117663683
      ],
      [
        "▁komisi",
        -9.504583023873062
      ],
      [
        "satunya",
        -9.505009038903356
      ],
      [
        "▁negatif",
        -9.508098962808814
      ],
      [
        "▁kebiasaan",
        -9.508781220075525
      ],
      [
        "▁rakyat",
        -9.509048984183767
      ],
      [
        "▁peraturan",
        -9.509668784363102
      ],
      [
        "▁status",
        -9.51019028419986
      ],
      [
        "▁sepenuhnya",
        -9.511771353300595
      ],
      [
        "▁ra",
        -9.512491202108846
      ],
      [
        "▁desember",
        -9.513141691719328
      ],
      [
        "▁sepatu",
        -9.513706511087427
      ],
      [
        "▁perasaan",
        -9.51384247717966
      ],
      [
        "▁penjudi",
        -9.514360899961916
      ],
      [
        "ting",
        -9.51516885004869
      ],
      [
        "▁berisi",
        -9.515563720284504
      ],
      [
        "▁https",
        -9.515794152516632
      ],
      [
        "▁idn",
        -9.515895865488282
      ],
      [
        "▁era",
        -9.516394927469788
      ],
      [
        "▁mode",
        -9.51646603346935
      ],
      [
        "▁order",
        -9.517156393793014
      ],
      [
        "▁sangatlah",
        -9.518213882227844
      ],
      [
        "▁lotere",
        -9.518380235897771
      ],
      [
        "▁kecamatan",
        -9.518471050630476
      ],
      [
        "▁grup",
        -9.51870817682813
      ],
      [
        "▁properti",
        -9.520269268766972
      ],
      [
        "▁pemilihan",
        -9.520302980172763
      ],
      [
        "▁jiwa",
        -9.521995669366124
      ],
      [
        "▁saldo",
        -9.522073551122752
      ],
      [
        "▁resep",
        -9.522176661952008
      ],
      [
        "▁rutin",
        -9.522589065232976
      ],
      [
        "▁daun",
        -9.52338155535147
      ],
      [
        "▁hosting",
        -9.52453500406433
      ],
      [
        "▁mu",
        -9.52587550930886
      ],
      [
        "ran",
        -9.52732791452317
      ],
      [
        "▁terkena",
        -9.527748025957049
      ],
      [
        "▁balik",
        -9.528464134092186
      ],
      [
        "▁hijau",
        -9.529304610250971
      ],
      [
        "▁bumi",
        -9.530497787571507
      ],
      [
        "▁ambil",
        -9.530841996574733
      ],
      [
        "▁kecuali",
        -9.531547681774002
      ],
      [
        "▁gaji",
        -9.532447591981509
      ],
      [
        "▁raja",
        -9.533581019336747
      ],
      [
        "▁bekas",
        -9.534918001268329
      ],
      [
        "ent",
        -9.535388954204809
      ],
      [
        "▁pedagang",
        -9.5358292178311
      ],
      [
        "▁comment",
        -9.536534259848288
      ],
      [
        "▁pertemuan",
        -9.537462511835122
      ],
      [
        "▁mod",
        -9.53764334203309
      ],
      [
        "▁seksual",
        -9.54009024723226
      ],
      [
        "▁diambil",
        -9.540970854024897
      ],
      [
        "▁ketentuan",
        -9.541123479313567
      ],
      [
        "kami",
        -9.541187846640888
      ],
      [
        "▁ikuti",
        -9.541533982209833
      ],
      [
        "sel",
        -9.54157239307227
      ],
      [
        "▁kelamin",
        -9.541841905620648
      ],
      [
        "▁juli",
        -9.542236864374226
      ],
      [
        "▁un",
        -9.542456074818796
      ],
      [
        "▁ratusan",
        -9.543058821274215
      ],
      [
        "▁mei",
        -9.543592807895868
      ],
      [
        "▁malaysia",
        -9.546533520672792
      ],
      [
        "▁ban",
        -9.546686987212642
      ],
      [
        "▁melainkan",
        -9.547300460743116
      ],
      [
        "▁pak",
        -9.548691787021523
      ],
      [
        "▁us",
        -9.548753652374012
      ],
      [
        "▁menjawab",
        -9.549093740425002
      ],
      [
        "▁serikat",
        -9.551187524667908
      ],
      [
        "▁enak",
        -9.55131581457322
      ],
      [
        "▁ejakulasi",
        -9.551990859184889
      ],
      [
        "▁jutaan",
        -9.552262955983077
      ],
      [
        "laki",
        -9.552954454258542
      ],
      [
        "▁ac",
        -9.553048584703758
      ],
      [
        "ton",
        -9.553052921888614
      ],
      [
        "▁pengusaha",
        -9.553097078433572
      ],
      [
        "▁offline",
        -9.553156995959778
      ],
      [
        "▁mar",
        -9.553704183232666
      ],
      [
        "▁dokumen",
        -9.554087928485352
      ],
      [
        "▁ampuh",
        -9.55466161729684
      ],
      [
        "▁pasang",
        -9.5554054237253
      ],
      [
        "▁bri",
        -9.555537208724802
      ],
      [
        "▁konsisten",
        -9.555741900464966
      ],
      [
        "▁melanjutkan",
        -9.55734636378607
      ],
      [
        "▁jawaban",
        -9.557780673292603
      ],
      [
        "▁virtual",
        -9.558575800852656
      ],
      [
        "▁miliar",
        -9.55949345604514
      ],
      [
        "▁diperhatikan",
        -9.559962812292168
      ],
      [
        "▁lo",
        -9.561699427609698
      ],
      [
        "▁kau",
        -9.563717144445112
      ],
      [
        "▁menurunkan",
        -9.563942800418175
      ],
      [
        "▁gubernur",
        -9.56480810101291
      ],
      [
        "▁jaminan",
        -9.565472886801938
      ],
      [
        "▁maret",
        -9.56671442590229
      ],
      [
        "▁persyaratan",
        -9.567246490717704
      ],
      [
        "▁referensi",
        -9.56804918103847
      ],
      [
        "▁terlibat",
        -9.568255049874644
      ],
      [
        "▁pa",
        -9.570654743745338
      ],
      [
        "▁kepercayaan",
        -9.571235797520709
      ],
      [
        "▁agustus",
        -9.571632172611816
      ],
      [
        "▁kursi",
        -9.571662064529194
      ],
      [
        "▁suasana",
        -9.572529023385046
      ],
      [
        "▁kanan",
        -9.57353770458709
      ],
      [
        "▁keseluruhan",
        -9.57488474726395
      ],
      [
        "▁pernikahan",
        -9.574890523084084
      ],
      [
        "▁susah",
        -9.574927751208303
      ],
      [
        "▁skor",
        -9.575609272291231
      ],
      [
        "▁grafik",
        -9.57573069133472
      ],
      [
        "▁lancar",
        -9.576146651071468
      ],
      [
        "▁dalamnya",
        -9.57646293349768
      ],
      [
        "▁menjalani",
        -9.577222084619423
      ],
      [
        "▁pemimpin",
        -9.577456759224727
      ],
      [
        "line",
        -9.578063229838904
      ],
      [
        "▁seringkali",
        -9.579335592174584
      ],
      [
        "▁api",
        -9.57969469072898
      ],
      [
        "▁harganya",
        -9.5809813268792
      ],
      [
        "▁detik",
        -9.581561159236362
      ],
      [
        "eng",
        -9.582955911638397
      ],
      [
        "▁support",
        -9.58376483665281
      ],
      [
        "▁menyiapkan",
        -9.58464163326087
      ],
      [
        "▁diberi",
        -9.584774152769906
      ],
      [
        "▁peralatan",
        -9.584805963347645
      ],
      [
        "▁he",
        -9.586479804166776
      ],
      [
        "▁post",
        -9.586700795375156
      ],
      [
        "▁pabrik",
        -9.58741411610456
      ],
      [
        "▁browser",
        -9.587541845666408
      ],
      [
        "▁harian",
        -9.588769649385192
      ],
      [
        "▁memeriksa",
        -9.589625863000569
      ],
      [
        "▁menimbulkan",
        -9.589642250395425
      ],
      [
        "▁mandi",
        -9.590266135259416
      ],
      [
        "▁system",
        -9.590552732741456
      ],
      [
        "▁adapun",
        -9.591023760156771
      ],
      [
        "▁slots",
        -9.591267192917394
      ],
      [
        "cara",
        -9.591457429723048
      ],
      [
        "▁korea",
        -9.591533924798057
      ],
      [
        "▁kompetisi",
        -9.59182004776564
      ],
      [
        "▁diinginkan",
        -9.591893289388045
      ],
      [
        "▁this",
        -9.59266221735148
      ],
      [
        "▁sarana",
        -9.592960595280896
      ],
      [
        "▁hamil",
        -9.592964087455623
      ],
      [
        "▁tes",
        -9.593853018324142
      ],
      [
        "▁lahir",
        -9.593981924162923
      ],
      [
        "▁seberapa",
        -9.59445547262152
      ],
      [
        "▁full",
        -9.5945468592623
      ],
      [
        "akan",
        -9.59465255228478
      ],
      [
        "▁pengaturan",
        -9.594668761559229
      ],
      [
        "▁berpengalaman",
        -9.594689417731573
      ],
      [
        "▁udah",
        -9.595353246319466
      ],
      [
        "▁sayangnya",
        -9.595678544362052
      ],
      [
        "▁kesuksesan",
        -9.596720750582174
      ],
      [
        "▁seni",
        -9.5970587731135
      ],
      [
        "▁pulang",
        -9.59709293151245
      ],
      [
        "▁iphone",
        -9.59819463563
      ],
      [
        "▁saran",
        -9.599163896373522
      ],
      [
        "▁we",
        -9.59995448033952
      ],
      [
        "▁kuliah",
        -9.599996265505135
      ],
      [
        "▁daging",
        -9.60050806922574
      ],
      [
        "▁tantangan",
        -9.60065083023114
      ],
      [
        "▁menyampaikan",
        -9.60066445113156
      ],
      [
        "▁tunggu",
        -9.601860594165066
      ],
      [
        "qq",
        -9.602362173669004
      ],
      [
        "poker",
        -9.60240269186635
      ],
      [
        "tahun",
        -9.602604748714338
      ],
      [
        "▁berjudi",
        -9.603549039890794
      ],
      [
        "▁or",
        -9.603932847944945
      ],
      [
        "▁account",
        -9.603944612710675
      ],
      [
        "▁diperoleh",
        -9.604846879423464
      ],
      [
        "▁oktober",
        -9.605194894472149
      ],
      [
        "▁lapangan",
        -9.606881200216234
      ],
      [
        "▁sewa",
        -9.608559976920592
      ],
      [
        "bar",
        -9.60869043698841
      ],
      [
        "▁komponen",
        -9.609806131764852
      ],
      [
        "▁habis",
        -9.610347669839358
      ],
      [
        "▁infeksi",
        -9.610682514755885
      ],
      [
        "▁dipercaya",
        -9.611317241428514
      ],
      [
        "▁kontrak",
        -9.611609166655976
      ],
      [
        "▁berbahaya",
        -9.61188702000038
      ],
      [
        "▁kejadian",
        -9.612932997679149
      ],
      [
        "▁tokoh",
        -9.61352464364151
      ],
      [
        "▁mengumpulkan",
        -9.614309891544488
      ],
      [
        "▁maju",
        -9.61447321639016
      ],
      [
        "▁seiring",
        -9.614704472941344
      ],
      [
        "▁penduduk",
        -9.61610915376388
      ],
      [
        "▁rusak",
        -9.616962930663387
      ],
      [
        "▁tekanan",
        -9.618172649259217
      ],
      [
        "▁meter",
        -9.61839554071894
      ],
      [
        "▁judul",
        -9.618660233671031
      ],
      [
        "▁your",
        -9.620131295427182
      ],
      [
        "▁contohnya",
        -9.62060870768492
      ],
      [
        "aku",
        -9.621219441673215
      ],
      [
        "▁pesawat",
        -9.62136352143145
      ],
      [
        "▁forum",
        -9.622474175102411
      ],
      [
        "▁pem",
        -9.624439396495228
      ],
      [
        "ian",
        -9.624530628203114
      ],
      [
        "▁menginginkan",
        -9.62524238395279
      ],
      [
        "▁pengertian",
        -9.625948787677526
      ],
      [
        "▁sikap",
        -9.626329431431603
      ],
      [
        "ong",
        -9.626819902447783
      ],
      [
        "▁diakses",
        -9.62760268511553
      ],
      [
        "▁provider",
        -9.62901820617331
      ],
      [
        "▁sampah",
        -9.630452752343752
      ],
      [
        "▁rasanya",
        -9.63110365287097
      ],
      [
        "▁burung",
        -9.631552778069643
      ],
      [
        "▁pra",
        -9.63339272993247
      ],
      [
        "▁sifat",
        -9.634839973512134
      ],
      [
        "▁peringkat",
        -9.63603327636432
      ],
      [
        "▁ditambah",
        -9.636077000089596
      ],
      [
        "▁pengeluaran",
        -9.63647624494211
      ],
      [
        "▁pekerja",
        -9.637316753724622
      ],
      [
        "▁are",
        -9.63762931875619
      ],
      [
        "▁butuhkan",
        -9.63950866342437
      ],
      [
        "▁memasukkan",
        -9.639537798297916
      ],
      [
        "▁mengaku",
        -9.640064175103683
      ],
      [
        "▁gedung",
        -9.642257429089476
      ],
      [
        "▁partai",
        -9.642884207294864
      ],
      [
        "▁permasalahan",
        -9.643176249281566
      ],
      [
        "▁can",
        -9.645735375330956
      ],
      [
        "▁hi",
        -9.64662158042526
      ],
      [
        "▁tersendiri",
        -9.647982723149516
      ],
      [
        "▁mitra",
        -9.648200806063407
      ],
      [
        "▁berwarna",
        -9.648224312597495
      ],
      [
        "▁bupati",
        -9.648405276208573
      ],
      [
        "▁bersifat",
        -9.649400291920962
      ],
      [
        "▁segi",
        -9.650916996011755
      ],
      [
        "▁juni",
        -9.652035064996795
      ],
      [
        "mempertimbangkan",
        -9.65227135287778
      ],
      [
        "▁bus",
        -9.652664679870869
      ],
      [
        "▁chat",
        -9.653127123996423
      ],
      [
        "▁ha",
        -9.653335075613738
      ],
      [
        "▁didalam",
        -9.65423115860224
      ],
      [
        "▁melewati",
        -9.654341943447992
      ],
      [
        "▁berkata",
        -9.655017835234114
      ],
      [
        "▁kawasan",
        -9.65674582712167
      ],
      [
        "▁mesti",
        -9.656968677422851
      ],
      [
        "kata",
        -9.657225498668456
      ],
      [
        "▁mengungkapkan",
        -9.657438060489222
      ],
      [
        "▁membentuk",
        -9.657764564510789
      ],
      [
        "•",
        -9.65777232417904
      ],
      [
        "▁kalo",
        -9.659045944216128
      ],
      [
        "▁domain",
        -9.659050805739884
      ],
      [
        "▁siang",
        -9.659163827782878
      ],
      [
        "▁dinas",
        -9.65942955130538
      ],
      [
        "▁dingin",
        -9.660009155150098
      ],
      [
        "▁memasuki",
        -9.660535568162087
      ],
      [
        "▁pos",
        -9.661136671659252
      ],
      [
        "▁beserta",
        -9.662902764975485
      ],
      [
        "▁ramah",
        -9.663266045772636
      ],
      [
        "▁that",
        -9.663428698004212
      ],
      [
        "▁suku",
        -9.663567568556577
      ],
      [
        "▁ni",
        -9.664267528827008
      ],
      [
        "▁pohon",
        -9.66477071975303
      ],
      [
        "▁ditentukan",
        -9.664810102411844
      ],
      [
        "▁baiknya",
        -9.66589580886163
      ],
      [
        "▁mencakup",
        -9.66660309047588
      ],
      [
        "▁juara",
        -9.667358598059971
      ],
      [
        "▁pasalnya",
        -9.668202019772156
      ],
      [
        "▁melindungi",
        -9.669231403199143
      ],
      [
        "▁bi",
        -9.670131796156666
      ],
      [
        "▁wasir",
        -9.671199643152828
      ],
      [
        "▁pembelajaran",
        -9.67149282191908
      ],
      [
        "▁kerusakan",
        -9.674032417859806
      ],
      [
        "▁ragu",
        -9.675174609595436
      ],
      [
        "▁sekedar",
        -9.67693428638479
      ],
      [
        "slot",
        -9.677793433522526
      ],
      [
        "▁twitter",
        -9.678494439748906
      ],
      [
        "san",
        -9.67966551716998
      ],
      [
        "▁koin",
        -9.679971564305411
      ],
      [
        "▁vitamin",
        -9.679992155968426
      ],
      [
        "▁pekan",
        -9.680623674128624
      ],
      [
        "▁kunjungi",
        -9.682903694207274
      ],
      [
        "▁sadar",
        -9.683025590305052
      ],
      [
        "▁plus",
        -9.684239868235323
      ],
      [
        "▁paham",
        -9.68430416527094
      ],
      [
        "▁canggih",
        -9.684507698836448
      ],
      [
        "▁ribuan",
        -9.684622843193903
      ],
      [
        "▁menutup",
        -9.687433563418256
      ],
      [
        "jam",
        -9.688140440239584
      ],
      [
        "▁berusia",
        -9.690038975530992
      ],
      [
        "▁menjamin",
        -9.691169676351828
      ],
      [
        "▁tata",
        -9.69173538095066
      ],
      [
        "▁terbuat",
        -9.691847786773709
      ],
      [
        "▁terletak",
        -9.69302320212089
      ],
      [
        "▁penampilan",
        -9.693394194793148
      ],
      [
        "▁bertambah",
        -9.695048413139077
      ],
      [
        "▁saluran",
        -9.695442147557769
      ],
      [
        "▁memperbaiki",
        -9.697630851882272
      ],
      [
        "▁mental",
        -9.697758833264992
      ],
      [
        "▁signifikan",
        -9.698315471862086
      ],
      [
        "▁bintang",
        -9.698507973626278
      ],
      [
        "▁payudara",
        -9.699369811168609
      ],
      [
        "@",
        -9.699675837962284
      ],
      [
        "▁sahabat",
        -9.700958611209655
      ],
      [
        "▁nikmati",
        -9.70156428080568
      ],
      [
        "▁bo",
        -9.701712029410404
      ],
      [
        "▁pembaca",
        -9.703580873240409
      ],
      [
        "▁ketat",
        -9.70427075497792
      ],
      [
        "▁kering",
        -9.70490402174857
      ],
      [
        "▁st",
        -9.70500104108387
      ],
      [
        "▁hobi",
        -9.705049971319934
      ],
      [
        "▁pecinta",
        -9.705176391734614
      ],
      [
        "▁sebagaimana",
        -9.705417414253477
      ],
      [
        "▁manis",
        -9.705605644305075
      ],
      [
        "▁kotak",
        -9.70561007407634
      ],
      [
        "▁ar",
        -9.706035307491836
      ],
      [
        "▁ideal",
        -9.707540637177049
      ],
      [
        "ju",
        -9.708657938419991
      ],
      [
        "▁seks",
        -9.710092862316015
      ],
      [
        "▁store",
        -9.710662872213463
      ],
      [
        "▁muslim",
        -9.710967504893697
      ],
      [
        "▁penurunan",
        -9.712075910818026
      ],
      [
        "beda",
        -9.712652951434212
      ],
      [
        "▁yuk",
        -9.713368023127538
      ],
      [
        "▁ereksi",
        -9.714886288964475
      ],
      [
        "▁pelatih",
        -9.716009917178262
      ],
      [
        "▁menganggap",
        -9.7164654241389
      ],
      [
        "▁pikir",
        -9.717035824575678
      ],
      [
        "▁dibuka",
        -9.7172465695097
      ],
      [
        "▁relatif",
        -9.71727283649347
      ],
      [
        "▁grafis",
        -9.717392315376651
      ],
      [
        "son",
        -9.718437511301644
      ],
      [
        "▁kok",
        -9.718946712374702
      ],
      [
        "▁kolom",
        -9.719259822975788
      ],
      [
        "▁prinsip",
        -9.71935514288245
      ],
      [
        "▁format",
        -9.719692919768338
      ],
      [
        "▁matahari",
        -9.71983406407212
      ],
      [
        "ve",
        -9.720339804027867
      ],
      [
        "▁februari",
        -9.720892087747696
      ],
      [
        "▁didukung",
        -9.721064884078096
      ],
      [
        "▁china",
        -9.721760234398232
      ],
      [
        "▁enam",
        -9.721872095188896
      ],
      [
        "▁melibatkan",
        -9.721893270727682
      ],
      [
        "▁wakil",
        -9.721907515704366
      ],
      [
        "tiba",
        -9.722938059623411
      ],
      [
        "▁senin",
        -9.723119466389386
      ],
      [
        "lain",
        -9.72353665670593
      ],
      [
        "▁piala",
        -9.723788027324996
      ],
      [
        "▁disarankan",
        -9.725578512025743
      ],
      [
        "▁terang",
        -9.725710802832156
      ],
      [
        "▁emosi",
        -9.727358197548435
      ],
      [
        "▁diterapkan",
        -9.72747035037167
      ],
      [
        "tik",
        -9.7283101248427
      ],
      [
        "▁mengganggu",
        -9.72837925745854
      ],
      [
        "▁user",
        -9.729673530297076
      ],
      [
        "sia",
        -9.73087298491552
      ],
      [
        "▁perilaku",
        -9.732199869585967
      ],
      [
        "▁one",
        -9.73344897661657
      ],
      [
        "▁blogger",
        -9.734568987197024
      ],
      [
        "▁heran",
        -9.735056463489586
      ],
      [
        "▁perut",
        -9.73632164953976
      ],
      [
        "▁kutil",
        -9.736376249528702
      ],
      [
        "▁hubungi",
        -9.737062561013165
      ],
      [
        "▁remaja",
        -9.73820784018766
      ],
      [
        "ker",
        -9.738991352982968
      ],
      [
        "▁ro",
        -9.73947126314042
      ],
      [
        "▁multi",
        -9.739674988774963
      ],
      [
        "▁samsung",
        -9.739970173734497
      ],
      [
        "▁mempertahankan",
        -9.741768050303376
      ],
      [
        "▁mengirim",
        -9.7426988021199
      ],
      [
        "▁search",
        -9.743835355679517
      ],
      [
        "situs",
        -9.7452382845925
      ],
      [
        "▁penasaran",
        -9.745323339928218
      ],
      [
        "▁performa",
        -9.745518226747794
      ],
      [
        "▁sekian",
        -9.745600981445676
      ],
      [
        "▁fa",
        -9.745672630103538
      ],
      [
        "▁jitu",
        -9.74639651145415
      ],
      [
        "wan",
        -9.747167475591832
      ],
      [
        "▁pot",
        -9.747476943407818
      ],
      [
        "▁disebutkan",
        -9.749920002488706
      ],
      [
        "▁peduli",
        -9.75000128635044
      ],
      [
        "der",
        -9.752208916978098
      ],
      [
        "▁http",
        -9.752393463625824
      ],
      [
        "▁potongan",
        -9.754469681826173
      ],
      [
        "▁tanggung",
        -9.75460020472013
      ],
      [
        "▁hujan",
        -9.755244453380737
      ],
      [
        "▁pkv",
        -9.755457530225655
      ],
      [
        "▁membagikan",
        -9.75552184478025
      ],
      [
        "▁sesi",
        -9.756147337015314
      ],
      [
        "▁diskon",
        -9.756150985260962
      ],
      [
        "▁variasi",
        -9.75618912653645
      ],
      [
        "▁penderita",
        -9.7564071363375
      ],
      [
        "▁logo",
        -9.757092023011534
      ],
      [
        "▁dibanding",
        -9.758374498673906
      ],
      [
        "▁bogor",
        -9.759051032759285
      ],
      [
        "▁segar",
        -9.759527474710405
      ],
      [
        "▁ki",
        -9.761018222662411
      ],
      [
        "▁kursus",
        -9.761468125492712
      ],
      [
        "▁kiri",
        -9.762235554975874
      ],
      [
        "▁dibangun",
        -9.763413732228706
      ],
      [
        "▁pintar",
        -9.76451068815413
      ],
      [
        "▁li",
        -9.764813660627992
      ],
      [
        "▁bangun",
        -9.765163111491932
      ],
      [
        "▁tarik",
        -9.765497024140364
      ],
      [
        "▁ram",
        -9.766336003983216
      ],
      [
        "▁mewah",
        -9.766347720223994
      ],
      [
        "itas",
        -9.766666314925486
      ],
      [
        "▁dinding",
        -9.767469145996484
      ],
      [
        "▁menghitung",
        -9.767609861059723
      ],
      [
        "▁menghadirkan",
        -9.767716676754114
      ],
      [
        "▁october",
        -9.7677589706206
      ],
      [
        "▁bertanggung",
        -9.767798057918933
      ],
      [
        "▁bertujuan",
        -9.76798902680841
      ],
      [
        "▁sungai",
        -9.769528060879864
      ],
      [
        "▁mendatang",
        -9.769996512343116
      ],
      [
        "▁tri",
        -9.770148572603334
      ],
      [
        "▁restoran",
        -9.770440656484189
      ],
      [
        "▁kekalahan",
        -9.770536815179105
      ],
      [
        "▁city",
        -9.77097406452839
      ],
      [
        "▁harinya",
        -9.77106942335014
      ],
      [
        "▁menteri",
        -9.771247417611814
      ],
      [
        "▁kreatif",
        -9.772658877952823
      ],
      [
        "▁rekan",
        -9.773056378677724
      ],
      [
        "▁menyebutkan",
        -9.773275729526716
      ],
      [
        "▁kuliner",
        -9.773725225749638
      ],
      [
        "▁roda",
        -9.773810247369052
      ],
      [
        "▁biar",
        -9.774133753018878
      ],
      [
        "▁berinvestasi",
        -9.774672171848971
      ],
      [
        "▁tulis",
        -9.77497215867608
      ],
      [
        "▁pemesanan",
        -9.775337601309532
      ],
      [
        "▁kaum",
        -9.775917279930487
      ],
      [
        "▁kain",
        -9.777676463447255
      ],
      [
        "▁my",
        -9.777860112331757
      ],
      [
        "▁baterai",
        -9.778868846367054
      ],
      [
        "▁nasi",
        -9.778911376194245
      ],
      [
        "▁cerdas",
        -9.779089091109068
      ],
      [
        "▁bicara",
        -9.78017338952768
      ],
      [
        "▁mengajak",
        -9.780685598998554
      ],
      [
        "pan",
        -9.780771092940258
      ],
      [
        "▁lahan",
        -9.780786001111307
      ],
      [
        "▁malang",
        -9.782075673881362
      ],
      [
        "ine",
        -9.782691012158546
      ],
      [
        "▁inovasi",
        -9.783317282289907
      ],
      [
        "▁share",
        -9.78345843220623
      ],
      [
        "▁varian",
        -9.78363115045493
      ],
      [
        "▁sub",
        -9.785964295140085
      ],
      [
        "▁minat",
        -9.786565323928471
      ],
      [
        "▁palsu",
        -9.7877648977163
      ],
      [
        "▁dapur",
        -9.787806267358029
      ],
      [
        "▁serangan",
        -9.789236706844257
      ],
      [
        "baru",
        -9.789580174147448
      ],
      [
        "▁rabu",
        -9.790542473372463
      ],
      [
        "▁sp",
        -9.79137846214502
      ],
      [
        "▁bingo",
        -9.791393366829498
      ],
      [
        "▁wi",
        -9.791648583610971
      ],
      [
        "▁pendapat",
        -9.79274496243576
      ],
      [
        "▁memikirkan",
        -9.793763308585408
      ],
      [
        "▁puas",
        -9.794144354396144
      ],
      [
        "▁kertas",
        -9.795985592083383
      ],
      [
        "▁sms",
        -9.796232906716536
      ],
      [
        "▁menilai",
        -9.7984001143403
      ],
      [
        "ana",
        -9.801540819133946
      ],
      [
        "▁menjanjikan",
        -9.801907702534669
      ],
      [
        "▁kolam",
        -9.803852319463044
      ],
      [
        "▁penipuan",
        -9.803892465929062
      ],
      [
        "▁mengalahkan",
        -9.804247086381809
      ],
      [
        "▁elektronik",
        -9.805208247045634
      ],
      [
        "mer",
        -9.806735272192626
      ],
      [
        "mana",
        -9.80682130088068
      ],
      [
        "▁beda",
        -9.807147379950154
      ],
      [
        "▁perang",
        -9.807443196341351
      ],
      [
        "▁pelajaran",
        -9.807646049514418
      ],
      [
        "▁operator",
        -9.807667817288024
      ],
      [
        "▁bu",
        -9.808325764426726
      ],
      [
        "▁toto",
        -9.80911738049421
      ],
      [
        "▁produsen",
        -9.809830572122674
      ],
      [
        "▁material",
        -9.809840862529647
      ],
      [
        "▁hanyalah",
        -9.811006903418198
      ],
      [
        "▁read",
        -9.811172732892464
      ],
      [
        "▁premium",
        -9.811216697727424
      ],
      [
        "▁gula",
        -9.812032334446554
      ],
      [
        "undang",
        -9.812803563165962
      ],
      [
        "▁medis",
        -9.81297894128927
      ],
      [
        "▁medan",
        -9.813637117690222
      ],
      [
        "▁saudara",
        -9.81522342522065
      ],
      [
        "▁postingan",
        -9.815246323063352
      ],
      [
        "▁didapat",
        -9.815466591224403
      ],
      [
        "▁handphone",
        -9.816500600416814
      ],
      [
        "▁stabil",
        -9.816820279358604
      ],
      [
        "▁teknis",
        -9.818805664301657
      ],
      [
        "▁raya",
        -9.819001371565292
      ],
      [
        "untuk",
        -9.81974705103148
      ],
      [
        "▁mantan",
        -9.820489356231633
      ],
      [
        "▁wisatawan",
        -9.820551530048723
      ],
      [
        "▁con",
        -9.820632857654097
      ],
      [
        "▁event",
        -9.822179892010304
      ],
      [
        "▁dilaksanakan",
        -9.822545479551565
      ],
      [
        "▁kaos",
        -9.822685782275594
      ],
      [
        "▁berharga",
        -9.822918621156685
      ],
      [
        "▁sungguh",
        -9.823162709159527
      ],
      [
        "▁berani",
        -9.82362518067502
      ],
      [
        "▁sma",
        -9.8239045932364
      ],
      [
        "▁terdaftar",
        -9.82395853815726
      ],
      [
        "▁menyesuaikan",
        -9.82546754037445
      ],
      [
        "▁entah",
        -9.82594986329226
      ],
      [
        "ion",
        -9.826084295763955
      ],
      [
        "▁keberadaan",
        -9.826695958863793
      ],
      [
        "▁kapal",
        -9.826775096392366
      ],
      [
        "▁lho",
        -9.827140659766634
      ],
      [
        "▁pelajari",
        -9.827385566416764
      ],
      [
        "▁penarikan",
        -9.827688077501003
      ],
      [
        "▁kepentingan",
        -9.827716346128748
      ],
      [
        "▁bet",
        -9.827793618547044
      ],
      [
        "▁telur",
        -9.82832359995898
      ],
      [
        "ment",
        -9.828402574996264
      ],
      [
        "▁tabel",
        -9.828441366508066
      ],
      [
        "▁lemak",
        -9.828509036147253
      ],
      [
        "▁pre",
        -9.82941047950204
      ],
      [
        "▁halnya",
        -9.830072293921786
      ],
      [
        "▁password",
        -9.831123156713254
      ],
      [
        "▁menguasai",
        -9.83175477653488
      ],
      [
        "▁stop",
        -9.831986757761396
      ],
      [
        "▁tampaknya",
        -9.83206208532598
      ],
      [
        "▁aneh",
        -9.832686819797113
      ],
      [
        "▁kamis",
        -9.833546319720222
      ],
      [
        "▁finansial",
        -9.833673665013954
      ],
      [
        "▁india",
        -9.834329073448108
      ],
      [
        "▁bilang",
        -9.834507587425888
      ],
      [
        "▁melaksanakan",
        -9.834517659449208
      ],
      [
        "▁memuaskan",
        -9.834548271404108
      ],
      [
        "▁z",
        -9.834587479730496
      ],
      [
        "▁sediakan",
        -9.83486573870026
      ],
      [
        "▁silakan",
        -9.835977989776069
      ],
      [
        "▁lah",
        -9.836464086024394
      ],
      [
        "▁selasa",
        -9.836662778622332
      ],
      [
        "▁menggunakannya",
        -9.8373892663341
      ],
      [
        "▁gelar",
        -9.837953286520351
      ],
      [
        "▁money",
        -9.83815691074042
      ],
      [
        "ers",
        -9.83862008482922
      ],
      [
        "▁perhitungan",
        -9.838674953534971
      ],
      [
        "▁interior",
        -9.838723720061942
      ],
      [
        "▁cat",
        -9.838871666528172
      ],
      [
        "ation",
        -9.839090303083742
      ],
      [
        "▁holdem",
        -9.83920288026114
      ],
      [
        "▁menghapus",
        -9.839574514603092
      ],
      [
        "▁pembahasan",
        -9.839869146260192
      ],
      [
        "▁terjadinya",
        -9.840392609899723
      ],
      [
        "▁wajar",
        -9.840494081496107
      ],
      [
        "▁alias",
        -9.840928555115555
      ],
      [
        "sen",
        -9.841027092629368
      ],
      [
        "▁pemahaman",
        -9.841837339051697
      ],
      [
        "▁lampu",
        -9.842656525847342
      ],
      [
        "▁ci",
        -9.843207283304414
      ],
      [
        "negara",
        -9.8435332062951
      ],
      [
        "▁march",
        -9.844807802552022
      ],
      [
        "▁hendak",
        -9.846150534314278
      ],
      [
        "▁menyebut",
        -9.846318881247056
      ],
      [
        "ding",
        -9.84697933748564
      ],
      [
        "▁sanggup",
        -9.848674870806136
      ],
      [
        "▁kirim",
        -9.84868933595639
      ],
      [
        "▁over",
        -9.848723818918936
      ],
      [
        "▁terlengkap",
        -9.848843352998044
      ],
      [
        "▁persiapan",
        -9.84916370560812
      ],
      [
        "▁cobalah",
        -9.849241397122348
      ],
      [
        "▁august",
        -9.850156114194972
      ],
      [
        "▁dikembangkan",
        -9.850309402888149
      ],
      [
        "▁pemuda",
        -9.850353705459568
      ],
      [
        "▁membuktikan",
        -9.851068578477504
      ],
      [
        "www",
        -9.851302829418174
      ],
      [
        "▁pemerintahan",
        -9.8517212850485
      ],
      [
        "▁berkunjung",
        -9.851933962858611
      ],
      [
        "▁benda",
        -9.853045256864432
      ],
      [
        "▁diikuti",
        -9.853108406458851
      ],
      [
        "▁ios",
        -9.855301136600378
      ],
      [
        "▁lepas",
        -9.855675634456285
      ],
      [
        "▁puncak",
        -9.856134804615536
      ],
      [
        "▁beruntung",
        -9.856519828497053
      ],
      [
        "▁aceh",
        -9.856596184159494
      ],
      [
        "▁dipastikan",
        -9.857156605701382
      ],
      [
        "▁riset",
        -9.85764966489748
      ],
      [
        "▁kira",
        -9.859321178041236
      ],
      [
        "▁kuda",
        -9.861276706186818
      ],
      [
        "▁pengelolaan",
        -9.862218899634096
      ],
      [
        "▁serupa",
        -9.862219841668589
      ],
      [
        "▁kenaikan",
        -9.863098175536466
      ],
      [
        "▁transportasi",
        -9.863224121546718
      ],
      [
        "▁undang",
        -9.863519670250614
      ],
      [
        "▁uncategorized",
        -9.863782879652897
      ],
      [
        "▁news",
        -9.864120475361142
      ],
      [
        "▁dominoqq",
        -9.864764701855927
      ],
      [
        "▁usd",
        -9.86489112339517
      ],
      [
        "▁july",
        -9.864980697232316
      ],
      [
        "▁penyimpanan",
        -9.86507916105067
      ],
      [
        "▁ujarnya",
        -9.86533576516785
      ],
      [
        "ara",
        -9.866254337775151
      ],
      [
        "▁dihasilkan",
        -9.8675173586201
      ],
      [
        "▁mengirimkan",
        -9.867610292595112
      ],
      [
        "tidak",
        -9.867944585641515
      ],
      [
        "jo",
        -9.86809806377379
      ],
      [
        "▁berlebihan",
        -9.8684057105142
      ],
      [
        "▁pengaruh",
        -9.869021803557391
      ],
      [
        "▁mempersiapkan",
        -9.869304331121269
      ],
      [
        "▁gadget",
        -9.86932240655896
      ],
      [
        "▁olymptrade",
        -9.870129076239918
      ],
      [
        "rah",
        -9.870596603994208
      ],
      [
        "▁pi",
        -9.8707993566091
      ],
      [
        "▁bapak",
        -9.87103783659937
      ],
      [
        "▁pemeriksaan",
        -9.871641383755644
      ],
      [
        "▁indo",
        -9.871998590264829
      ],
      [
        "▁mengganti",
        -9.872219002204384
      ],
      [
        "anda",
        -9.872392648730129
      ],
      [
        "▁bayar",
        -9.87246789664875
      ],
      [
        "▁elemen",
        -9.873211710742083
      ],
      [
        "▁bakteri",
        -9.873492261967224
      ],
      [
        "▁kemarin",
        -9.874649242779023
      ],
      [
        "▁kenal",
        -9.874948906474184
      ],
      [
        "▁televisi",
        -9.877569505072357
      ],
      [
        "▁diminta",
        -9.877619478101415
      ],
      [
        "▁ayah",
        -9.87784801809406
      ],
      [
        "▁misi",
        -9.877966753761823
      ],
      [
        "▁kucing",
        -9.878866842250511
      ],
      [
        "▁ujung",
        -9.87968924097952
      ],
      [
        "▁ad",
        -9.879986356783022
      ],
      [
        "▁izin",
        -9.880115267271746
      ],
      [
        "▁setengah",
        -9.880574077899482
      ],
      [
        "▁wordpress",
        -9.880621768729611
      ],
      [
        "▁lisensi",
        -9.880922119474144
      ],
      [
        "est",
        -9.88226673206722
      ],
      [
        "▁hutan",
        -9.884184353104164
      ],
      [
        "▁beban",
        -9.885355012339762
      ],
      [
        "langkah",
        -9.885410958207949
      ],
      [
        "▁mengkonsumsi",
        -9.887172122837386
      ],
      [
        "▁tutup",
        -9.887313822235573
      ],
      [
        "▁terjun",
        -9.888200554578209
      ],
      [
        "▁bersaing",
        -9.888861778726826
      ],
      [
        "age",
        -9.888980573421366
      ],
      [
        "tion",
        -9.889095812969543
      ],
      [
        "▁call",
        -9.889654323060755
      ],
      [
        "▁group",
        -9.889667328095356
      ],
      [
        "▁lemah",
        -9.890086962060437
      ],
      [
        "▁asam",
        -9.891194991211428
      ],
      [
        "▁kampus",
        -9.891234750222411
      ],
      [
        "▁kegagalan",
        -9.891237683361355
      ],
      [
        "▁singapore",
        -9.891927746310882
      ],
      [
        "▁kerap",
        -9.892042979791595
      ],
      [
        "▁dibawa",
        -9.89217219085759
      ],
      [
        "▁terpenting",
        -9.89220349783038
      ],
      [
        "▁pentingnya",
        -9.892776087087643
      ],
      [
        "▁peristiwa",
        -9.893550892075542
      ],
      [
        "▁gas",
        -9.893586899798382
      ],
      [
        "gan",
        -9.89370036218709
      ],
      [
        "▁km",
        -9.894530989262607
      ],
      [
        "▁bandarq",
        -9.895000186384996
      ],
      [
        "▁sudut",
        -9.895015214473796
      ],
      [
        "▁car",
        -9.896691068803742
      ],
      [
        "▁q",
        -9.896893689974355
      ],
      [
        "▁master",
        -9.8970749633194
      ],
      [
        "▁dijalankan",
        -9.897167503427868
      ],
      [
        "▁topik",
        -9.897577405375422
      ],
      [
        "▁stres",
        -9.898074932477732
      ],
      [
        "▁panggilan",
        -9.898231007164418
      ],
      [
        "▁tambah",
        -9.899251867892945
      ],
      [
        "▁cabang",
        -9.899577233590554
      ],
      [
        "▁lipat",
        -9.899928192306575
      ],
      [
        "▁penghargaan",
        -9.899993313594845
      ],
      [
        "▁luka",
        -9.90006710289602
      ],
      [
        "▁teh",
        -9.900249929989815
      ],
      [
        "▁le",
        -9.900271495135762
      ],
      [
        "pro",
        -9.900608736903534
      ],
      [
        "▁teori",
        -9.901688868177546
      ],
      [
        "▁mainan",
        -9.902873956625228
      ],
      [
        "▁berpengaruh",
        -9.902960139938388
      ],
      [
        "▁sabtu",
        -9.902996613402545
      ],
      [
        "▁app",
        -9.903097618466743
      ],
      [
        "▁keberhasilan",
        -9.904398555205663
      ],
      [
        "▁sayang",
        -9.905194482054153
      ],
      [
        "▁terlepas",
        -9.905387451678724
      ],
      [
        "▁terhubung",
        -9.90593210328256
      ],
      [
        "▁kunjungan",
        -9.906153602335216
      ],
      [
        "▁bakar",
        -9.906507160281672
      ],
      [
        "▁kabel",
        -9.907695919466828
      ],
      [
        "▁atm",
        -9.907768407423095
      ],
      [
        "▁out",
        -9.909021143831064
      ],
      [
        "▁amat",
        -9.909030866142633
      ],
      [
        "▁sejauh",
        -9.909239388718314
      ],
      [
        "▁menangani",
        -9.909329824436332
      ],
      [
        "za",
        -9.909971781301088
      ],
      [
        "▁kesan",
        -9.910299627934242
      ],
      [
        "▁streaming",
        -9.910718260910008
      ],
      [
        "one",
        -9.91098773781338
      ],
      [
        "▁open",
        -9.911185449467672
      ],
      [
        "▁sebelah",
        -9.911215930614738
      ],
      [
        "▁membersihkan",
        -9.91439049538621
      ],
      [
        "▁mengunduh",
        -9.914479372970291
      ],
      [
        "▁minta",
        -9.915899559849276
      ],
      [
        "▁dimanfaatkan",
        -9.9159895450152
      ],
      [
        "kita",
        -9.916391239465025
      ],
      [
        "▁memakan",
        -9.916832156687356
      ],
      [
        "▁umur",
        -9.916862467109135
      ],
      [
        "▁bahagia",
        -9.91784366948849
      ],
      [
        "▁point",
        -9.918293989098544
      ],
      [
        "▁nutrisi",
        -9.919073825224592
      ],
      [
        "▁lintas",
        -9.919776856684448
      ],
      [
        "▁menikah",
        -9.92004014714732
      ],
      [
        "▁menekan",
        -9.920164667258137
      ],
      [
        "▁masjid",
        -9.920960192527076
      ],
      [
        "▁june",
        -9.921131920020304
      ],
      [
        "▁petugas",
        -9.921367109284958
      ],
      [
        "▁prosedur",
        -9.922527269769978
      ],
      [
        "▁mini",
        -9.92255806091663
      ],
      [
        "▁keterangan",
        -9.922608617650548
      ],
      [
        "▁december",
        -9.923885468006194
      ],
      [
        "▁gelap",
        -9.92391064824228
      ],
      [
        "▁mulut",
        -9.924590865307596
      ],
      [
        "▁dibilang",
        -9.92535275347903
      ],
      [
        "▁perencanaan",
        -9.925407977098146
      ],
      [
        "▁kala",
        -9.925600451379935
      ],
      [
        "▁skill",
        -9.9258935493824
      ],
      [
        "▁memesan",
        -9.926073531970466
      ],
      [
        "▁dirancang",
        -9.927221174606256
      ],
      [
        "▁jerawat",
        -9.927981816162534
      ],
      [
        "▁withdraw",
        -9.928386587012795
      ],
      [
        "▁seluler",
        -9.928974968065225
      ],
      [
        "▁struktur",
        -9.931334769461246
      ],
      [
        "▁zat",
        -9.932021292059254
      ],
      [
        "▁betting",
        -9.93224307218972
      ],
      [
        "▁otot",
        -9.932481598810398
      ],
      [
        "▁dicari",
        -9.93269979644663
      ],
      [
        "▁keperluan",
        -9.93386160531197
      ],
      [
        "▁disesuaikan",
        -9.935120085570722
      ],
      [
        "▁kehadiran",
        -9.93513814332329
      ],
      [
        "▁berhati",
        -9.935548245953434
      ],
      [
        "▁diper",
        -9.935767317525425
      ],
      [
        "▁pendukung",
        -9.936593348397473
      ],
      [
        "▁manual",
        -9.936899161292075
      ],
      [
        "▁efisien",
        -9.937122970085472
      ],
      [
        "▁ip",
        -9.93763083717631
      ],
      [
        "▁sgp",
        -9.938059550844986
      ],
      [
        "▁www",
        -9.938501444284675
      ],
      [
        "▁kemajuan",
        -9.941532330233247
      ],
      [
        "▁pertimbangan",
        -9.941656571736972
      ],
      [
        "▁nge",
        -9.941722378923426
      ],
      [
        "om",
        -9.942556490729064
      ],
      [
        "▁mp",
        -9.942669309385517
      ],
      [
        "▁menurutnya",
        -9.944839386014824
      ],
      [
        "▁jumat",
        -9.945207255829828
      ],
      [
        "▁meninggal",
        -9.945387353794354
      ],
      [
        "▁ambeien",
        -9.94719344600458
      ],
      [
        "▁card",
        -9.947522133728498
      ],
      [
        "tasi",
        -9.947557374171064
      ],
      [
        "▁teratur",
        -9.947883960270154
      ],
      [
        "▁auto",
        -9.949195112228177
      ],
      [
        "▁internal",
        -9.949422431544251
      ],
      [
        "▁plastik",
        -9.950971127804358
      ],
      [
        "▁persentase",
        -9.951244985491163
      ],
      [
        "▁win",
        -9.951273200566582
      ],
      [
        "▁profil",
        -9.951625944607857
      ],
      [
        "▁optimal",
        -9.952662602924446
      ],
      [
        "▁pelaksanaan",
        -9.95295757233418
      ],
      [
        "▁hangat",
        -9.95356586381706
      ],
      [
        "tra",
        -9.954350906597924
      ],
      [
        "ner",
        -9.955240064146984
      ],
      [
        "▁diantara",
        -9.95597347039659
      ],
      [
        "▁kue",
        -9.957484779487856
      ],
      [
        "▁dijelaskan",
        -9.957511291914154
      ],
      [
        "▁high",
        -9.957518610468506
      ],
      [
        "▁dijamin",
        -9.957542462022609
      ],
      [
        "▁jo",
        -9.957688784548797
      ],
      [
        "▁australia",
        -9.95850773799885
      ],
      [
        "▁identitas",
        -9.958722815550846
      ],
      [
        "▁kumpulan",
        -9.959279372890803
      ],
      [
        "▁pemandangan",
        -9.959562059550947
      ],
      [
        "▁united",
        -9.960231554239504
      ],
      [
        "▁papan",
        -9.960634031304528
      ],
      [
        "▁volume",
        -9.96063575834924
      ],
      [
        "▁perbaikan",
        -9.962272117417085
      ],
      [
        "▁berbentuk",
        -9.962644609802542
      ],
      [
        "▁hindari",
        -9.963310155126246
      ],
      [
        "▁teks",
        -9.964471848397642
      ],
      [
        "▁menurun",
        -9.965330418154828
      ],
      [
        "▁beroperasi",
        -9.965427427903096
      ],
      [
        "ring",
        -9.9657472980598
      ],
      [
        "▁kematian",
        -9.965909314238212
      ],
      [
        "▁menghemat",
        -9.966017119955998
      ],
      [
        "▁aliran",
        -9.967351014100192
      ],
      [
        "▁im",
        -9.967624068284092
      ],
      [
        "ita",
        -9.967900943927024
      ],
      [
        "▁berkat",
        -9.967939043942042
      ],
      [
        "mas",
        -9.968278838795293
      ],
      [
        "▁direktur",
        -9.96887036528326
      ],
      [
        "▁ja",
        -9.969564439859363
      ],
      [
        "▁ge",
        -9.96966188682264
      ],
      [
        "▁keluaran",
        -9.969672068720175
      ],
      [
        "▁apple",
        -9.969846548028888
      ],
      [
        "▁menge",
        -9.96998652134139
      ],
      [
        "▁polisi",
        -9.970142046025453
      ],
      [
        "▁tulang",
        -9.970483001644864
      ],
      [
        "▁pariwisata",
        -9.97095628896692
      ],
      [
        "▁nih",
        -9.970973737859923
      ],
      [
        "▁mencetak",
        -9.970976376744485
      ],
      [
        "▁muka",
        -9.971622633927527
      ],
      [
        "▁mempermudah",
        -9.972273243705688
      ],
      [
        "▁menengah",
        -9.972378528503008
      ],
      [
        "▁ditetapkan",
        -9.973868777140524
      ],
      [
        "▁klasik",
        -9.9744742213551
      ],
      [
        "kota",
        -9.974779220296304
      ],
      [
        "▁el",
        -9.975227787019636
      ],
      [
        "▁setoran",
        -9.975852977868753
      ],
      [
        "▁kuota",
        -9.976170775779105
      ],
      [
        "▁apartemen",
        -9.976253267588548
      ],
      [
        "▁ne",
        -9.976413679896313
      ],
      [
        "▁berbelanja",
        -9.976552343259106
      ],
      [
        "▁uji",
        -9.976595388102451
      ],
      [
        "▁staf",
        -9.978120575417206
      ],
      [
        "▁ditulis",
        -9.978227495563184
      ],
      [
        "ny",
        -9.978369136410832
      ],
      [
        "▁tip",
        -9.978467156902871
      ],
      [
        "▁disampaikan",
        -9.97910211300386
      ],
      [
        "▁mengandalkan",
        -9.979868885964054
      ],
      [
        "▁dikeluarkan",
        -9.980289821710532
      ],
      [
        "▁terbilang",
        -9.98120355967076
      ],
      [
        "tar",
        -9.981657256484928
      ],
      [
        "▁lu",
        -9.982222894685489
      ],
      [
        "▁menetapkan",
        -9.982619820192218
      ],
      [
        "▁pencari",
        -9.982682791529518
      ],
      [
        "▁sd",
        -9.982795883765112
      ],
      [
        "▁best",
        -9.98297010828591
      ],
      [
        "▁pernyataan",
        -9.983905145204956
      ],
      [
        "▁pendekatan",
        -9.984404750777008
      ],
      [
        "▁darat",
        -9.984971726041522
      ],
      [
        "▁lebar",
        -9.985574066209026
      ],
      [
        "ten",
        -9.985684339138924
      ],
      [
        "▁kementerian",
        -9.986159884111794
      ],
      [
        "▁jerman",
        -9.986624878692592
      ],
      [
        "▁mengerjakan",
        -9.986631496775551
      ],
      [
        "▁gatal",
        -9.987239785831958
      ],
      [
        "▁mengonsumsi",
        -9.98795546511488
      ],
      [
        "▁perlindungan",
        -9.988292379185712
      ],
      [
        "▁bervariasi",
        -9.98844675748266
      ],
      [
        "▁kontrol",
        -9.988479023399025
      ],
      [
        "▁setia",
        -9.989001251993516
      ],
      [
        "isi",
        -9.98928672496934
      ],
      [
        "▁halal",
        -9.990000245679902
      ],
      [
        "▁january",
        -9.99064831519762
      ],
      [
        "▁sekalipun",
        -9.99083090118937
      ],
      [
        "▁terdekat",
        -9.99312158699383
      ],
      [
        "▁parah",
        -9.993147316589484
      ],
      [
        "▁lumayan",
        -9.993478979739896
      ],
      [
        "▁betul",
        -9.993537113065324
      ],
      [
        "▁urusan",
        -9.993753825986884
      ],
      [
        "▁ceme",
        -9.994335357004775
      ],
      [
        "▁distributor",
        -9.995113202913783
      ],
      [
        "▁pandangan",
        -9.99532377858676
      ],
      [
        "▁sepakbola",
        -9.99538828566514
      ],
      [
        "▁em",
        -9.995681864337788
      ],
      [
        "▁puluhan",
        -9.995913312816022
      ],
      [
        "ler",
        -9.99598698442208
      ],
      [
        "▁diingat",
        -9.996208361807982
      ],
      [
        "▁posting",
        -9.997026096362331
      ],
      [
        "▁tembak",
        -9.99783524941559
      ],
      [
        "min",
        -9.99994844930109
      ],
      [
        "▁pragmatic",
        -10.001075084605535
      ],
      [
        "▁oppo",
        -10.00123186578236
      ],
      [
        "▁sengaja",
        -10.00150481991625
      ],
      [
        "▁world",
        -10.001571649453275
      ],
      [
        "kin",
        -10.002486478150695
      ],
      [
        "▁hk",
        -10.00303594679877
      ],
      [
        "▁honda",
        -10.00321554956957
      ],
      [
        "▁statistik",
        -10.00341169053742
      ],
      [
        "▁ti",
        -10.003550393315267
      ],
      [
        "▁bergantung",
        -10.004381443101664
      ],
      [
        "▁loss",
        -10.00460968135436
      ],
      [
        "▁drama",
        -10.004620905952304
      ],
      [
        "▁koleksi",
        -10.005326638669391
      ],
      [
        "▁ramai",
        -10.006590667059092
      ],
      [
        "▁je",
        -10.008107925873995
      ],
      [
        "▁center",
        -10.008561025151373
      ],
      [
        "▁jadikan",
        -10.008580302258522
      ],
      [
        "the",
        -10.009537421362085
      ],
      [
        "▁dirilis",
        -10.010171855879772
      ],
      [
        "▁price",
        -10.01029114894118
      ],
      [
        "▁latar",
        -10.010429694679884
      ],
      [
        "▁senjata",
        -10.010588265905636
      ],
      [
        "▁instan",
        -10.01063800904991
      ],
      [
        "▁item",
        -10.011225578702664
      ],
      [
        "▁diatur",
        -10.011287418172584
      ],
      [
        "▁unsur",
        -10.01149740331632
      ],
      [
        "▁jari",
        -10.012239665010048
      ],
      [
        "lin",
        -10.01233178397752
      ],
      [
        "▁meliputi",
        -10.012990923361572
      ],
      [
        "▁dialami",
        -10.01497449830758
      ],
      [
        "▁sesungguhnya",
        -10.01513770386957
      ],
      [
        "▁pin",
        -10.015556963809418
      ],
      [
        "able",
        -10.016002683088104
      ],
      [
        "▁sepertinya",
        -10.01725466997119
      ],
      [
        "▁disukai",
        -10.017407097565371
      ],
      [
        "▁kendala",
        -10.019102759969712
      ],
      [
        "▁objek",
        -10.020393605722273
      ],
      [
        "▁gadis",
        -10.020555893894318
      ],
      [
        "▁akal",
        -10.021007091171048
      ],
      [
        "▁umat",
        -10.02138432858249
      ],
      [
        "ngan",
        -10.022088955506982
      ],
      [
        "▁bursa",
        -10.02233515125566
      ],
      [
        "▁travel",
        -10.023959064275914
      ],
      [
        "▁walau",
        -10.02402976824979
      ],
      [
        "ist",
        -10.024280476343606
      ],
      [
        "▁ganti",
        -10.024824285065309
      ],
      [
        "▁from",
        -10.024923849571708
      ],
      [
        "ban",
        -10.02522096076432
      ],
      [
        "▁vegas",
        -10.025616968912718
      ],
      [
        "annya",
        -10.025652505821112
      ],
      [
        "▁pesanan",
        -10.025845008146796
      ],
      [
        "▁bosan",
        -10.026311092041048
      ],
      [
        "▁memproduksi",
        -10.026617005722
      ],
      [
        "▁manajer",
        -10.026710943522778
      ],
      [
        "▁buatan",
        -10.027539674622345
      ],
      [
        "▁tegas",
        -10.02793710001045
      ],
      [
        "▁momen",
        -10.028022134269357
      ],
      [
        "rang",
        -10.028591692049009
      ],
      [
        "▁pers",
        -10.02867162310748
      ],
      [
        "▁ditampilkan",
        -10.028870539333168
      ],
      [
        "▁memegang",
        -10.029148524987912
      ],
      [
        "angan",
        -10.029266411672603
      ],
      [
        "▁rumit",
        -10.029980661629692
      ],
      [
        "▁toyota",
        -10.030146182634985
      ],
      [
        "▁strategis",
        -10.03029689721013
      ],
      [
        "▁keahlian",
        -10.030420929674392
      ],
      [
        "kon",
        -10.030724652395405
      ],
      [
        "▁besi",
        -10.030780466968618
      ],
      [
        "▁kimia",
        -10.030860679212251
      ],
      [
        "▁formulir",
        -10.031319964424522
      ],
      [
        "▁february",
        -10.031735407131697
      ],
      [
        "▁en",
        -10.032053920450725
      ],
      [
        "▁mengajukan",
        -10.032393984798878
      ],
      [
        "▁ca",
        -10.03244291117134
      ],
      [
        "▁registrasi",
        -10.032460855383349
      ],
      [
        "foto",
        -10.032642121816538
      ],
      [
        "▁sah",
        -10.032842998580946
      ],
      [
        "▁betapa",
        -10.033681094292136
      ],
      [
        "▁not",
        -10.03453879733816
      ],
      [
        "kali",
        -10.034782714324468
      ],
      [
        "▁tujuh",
        -10.035030098932635
      ],
      [
        "▁permukaan",
        -10.036038910912652
      ],
      [
        "▁kaca",
        -10.03613084848072
      ],
      [
        "▁menyerang",
        -10.03618302974484
      ],
      [
        "▁antaranya",
        -10.036227955382166
      ],
      [
        "▁petunjuk",
        -10.037056440943616
      ],
      [
        "▁laman",
        -10.037360970524103
      ],
      [
        "▁dibeli",
        -10.037433541446376
      ],
      [
        "▁sebut",
        -10.03770285133104
      ],
      [
        "▁yogyakarta",
        -10.039147933765188
      ],
      [
        "▁fashion",
        -10.04003488670895
      ],
      [
        "▁rugi",
        -10.040105570719776
      ],
      [
        "▁tautan",
        -10.04046653239347
      ],
      [
        "ken",
        -10.041851550873348
      ],
      [
        "▁pesat",
        -10.042268722237552
      ],
      [
        "▁nasabah",
        -10.042275294798586
      ],
      [
        "▁minimum",
        -10.042832512767156
      ],
      [
        "▁mengakibatkan",
        -10.042890168432436
      ],
      [
        "▁bersamaan",
        -10.04338318243226
      ],
      [
        "▁vi",
        -10.0440569488766
      ],
      [
        "▁pengembang",
        -10.044533874882127
      ],
      [
        "▁dipahami",
        -10.044569232499772
      ],
      [
        "▁make",
        -10.044774680431647
      ],
      [
        "▁laba",
        -10.04525741530798
      ],
      [
        "▁tuan",
        -10.045267894025246
      ],
      [
        "▁gu",
        -10.045496582686155
      ],
      [
        "▁organ",
        -10.045543324423315
      ],
      [
        "▁motivasi",
        -10.046047066959998
      ],
      [
        "▁tablet",
        -10.04610909482486
      ],
      [
        "▁prioritas",
        -10.046974194127646
      ],
      [
        "▁prestasi",
        -10.047000107878686
      ],
      [
        "▁memainkannya",
        -10.047848143330633
      ],
      [
        "▁nonton",
        -10.048178362655188
      ],
      [
        "▁cahaya",
        -10.04825706186146
      ],
      [
        "baik",
        -10.049446667133491
      ],
      [
        "▁nabi",
        -10.049712107474686
      ],
      [
        "▁madrid",
        -10.050461151929875
      ],
      [
        "▁sabung",
        -10.051818429977452
      ],
      [
        "▁belanda",
        -10.051985616535108
      ],
      [
        "▁rapat",
        -10.052133374829712
      ],
      [
        "dia",
        -10.052481881279055
      ],
      [
        "▁halus",
        -10.052507478839004
      ],
      [
        "isasi",
        -10.053466271824576
      ],
      [
        "len",
        -10.053614486763232
      ],
      [
        "▁babak",
        -10.053734749094568
      ],
      [
        "▁suhu",
        -10.054070735849152
      ],
      [
        "▁tarif",
        -10.05416921034734
      ],
      [
        "▁berperan",
        -10.054466587963253
      ],
      [
        "▁merusak",
        -10.055030375160538
      ],
      [
        "▁merk",
        -10.055512825579587
      ],
      [
        "▁lantas",
        -10.056226545212638
      ],
      [
        "▁lambat",
        -10.056992377311746
      ],
      [
        "▁kon",
        -10.057222941502882
      ],
      [
        "▁menahan",
        -10.05809033633333
      ],
      [
        "▁menyarankan",
        -10.058331512950884
      ],
      [
        "▁stasiun",
        -10.058943454006329
      ],
      [
        "▁pm",
        -10.059188006223485
      ],
      [
        "▁sisa",
        -10.059517624273871
      ],
      [
        "▁gel",
        -10.060160985383115
      ],
      [
        "ex",
        -10.060505507846072
      ],
      [
        "▁vivo",
        -10.060941017529558
      ],
      [
        "▁microsoft",
        -10.06127683997249
      ],
      [
        "▁tanya",
        -10.06213117705446
      ],
      [
        "ide",
        -10.062332086857946
      ],
      [
        "▁persaingan",
        -10.06252383287262
      ],
      [
        "jar",
        -10.062915677701447
      ],
      [
        "ster",
        -10.06324504739278
      ],
      [
        "▁menolak",
        -10.063430909054896
      ],
      [
        "▁batasan",
        -10.063470982140188
      ],
      [
        "ium",
        -10.063563413165262
      ],
      [
        "▁berdampak",
        -10.065482367337967
      ],
      [
        "▁keindahan",
        -10.065813780432372
      ],
      [
        "▁kereta",
        -10.06591507063489
      ],
      [
        "va",
        -10.066022974123843
      ],
      [
        "▁vital",
        -10.066379736887296
      ],
      [
        "▁power",
        -10.06823561685725
      ],
      [
        "▁lembut",
        -10.06844062221451
      ],
      [
        "▁solo",
        -10.069063522061958
      ],
      [
        "▁ps",
        -10.069829457195896
      ],
      [
        "▁tabungan",
        -10.070393944543513
      ],
      [
        "den",
        -10.070654031810712
      ],
      [
        "▁bca",
        -10.070693008328185
      ],
      [
        "▁mt",
        -10.07085013010073
      ],
      [
        "atau",
        -10.071099899843343
      ],
      [
        "game",
        -10.071785166769857
      ],
      [
        "·",
        -10.071790056007636
      ],
      [
        "▁pan",
        -10.07264976598678
      ],
      [
        "ger",
        -10.072679272829722
      ],
      [
        "▁pindah",
        -10.074194341339163
      ],
      [
        "▁crusher",
        -10.074324770213789
      ],
      [
        "▁sosok",
        -10.074692916995884
      ],
      [
        "▁business",
        -10.075278710441427
      ],
      [
        "▁manfaatkan",
        -10.075534582096518
      ],
      [
        "▁band",
        -10.075572317955828
      ],
      [
        "▁hold",
        -10.07633340291202
      ],
      [
        "▁deh",
        -10.078003505969845
      ],
      [
        "▁buy",
        -10.079338594803632
      ],
      [
        "▁rangka",
        -10.08033804905262
      ],
      [
        "▁page",
        -10.080598636480614
      ],
      [
        "▁jaman",
        -10.082256842006371
      ],
      [
        "▁beralih",
        -10.082900029607336
      ],
      [
        "▁pemasangan",
        -10.083186614727252
      ],
      [
        "▁disana",
        -10.084359920681363
      ],
      [
        "▁pembuat",
        -10.085111447805517
      ],
      [
        "▁kosong",
        -10.08887484768717
      ],
      [
        "▁ajang",
        -10.08902209507901
      ],
      [
        "▁setempat",
        -10.090078010763971
      ],
      [
        "▁unggul",
        -10.091477399892517
      ],
      [
        "▁label",
        -10.09175773091103
      ],
      [
        "jalan",
        -10.092063079953965
      ],
      [
        "▁terapi",
        -10.092173571653849
      ],
      [
        "▁menyajikan",
        -10.092258027642782
      ],
      [
        "▁biru",
        -10.092844520459636
      ],
      [
        "▁dimaksud",
        -10.09291939294582
      ],
      [
        "▁makna",
        -10.0933618390263
      ],
      [
        "▁sim",
        -10.09363462735224
      ],
      [
        "rus",
        -10.093675694304675
      ],
      [
        "▁pertanian",
        -10.095461350714285
      ],
      [
        "▁pemikiran",
        -10.095655721982908
      ],
      [
        "▁memori",
        -10.0958264370154
      ],
      [
        "lis",
        -10.095988493437188
      ],
      [
        "org",
        -10.096195100084072
      ],
      [
        "nis",
        -10.09648228974463
      ],
      [
        "▁merawat",
        -10.09739979619699
      ],
      [
        "▁masukkan",
        -10.09784399104618
      ],
      [
        "▁privasi",
        -10.097894740386035
      ],
      [
        "▁renang",
        -10.098924433054638
      ],
      [
        "senang",
        -10.09906979654046
      ],
      [
        "▁berkurang",
        -10.099170519286272
      ],
      [
        "▁turut",
        -10.099843428568771
      ],
      [
        "▁beliau",
        -10.100603530863784
      ],
      [
        "▁leave",
        -10.101049252281134
      ],
      [
        "▁matang",
        -10.101421104752466
      ],
      [
        "▁berbisnis",
        -10.102020912679684
      ],
      [
        "▁afiliasi",
        -10.103283467548692
      ],
      [
        "▁niat",
        -10.10517050935942
      ],
      [
        "▁dikutip",
        -10.105551200993215
      ],
      [
        "▁sensasi",
        -10.105579127942136
      ],
      [
        "gen",
        -10.105796789843152
      ],
      [
        "▁jogja",
        -10.105834201974169
      ],
      [
        "▁ho",
        -10.106387583308866
      ],
      [
        "▁bermacam",
        -10.106545073036637
      ],
      [
        "▁spanyol",
        -10.107434698029104
      ],
      [
        "▁lotre",
        -10.108318967596633
      ],
      [
        "▁nyeri",
        -10.108463959973754
      ],
      [
        "▁pasir",
        -10.108562897663123
      ],
      [
        "▁ekstra",
        -10.10867275581937
      ],
      [
        "▁tu",
        -10.108751855122126
      ],
      [
        "▁os",
        -10.109028082362128
      ],
      [
        "▁operasional",
        -10.109663522061965
      ],
      [
        "rak",
        -10.1102552539551
      ],
      [
        "▁jendela",
        -10.110382782645742
      ],
      [
        "▁perintah",
        -10.110890342860005
      ],
      [
        "▁siapkan",
        -10.11197271259648
      ],
      [
        "▁akuntansi",
        -10.113039255332655
      ],
      [
        "▁gambaran",
        -10.113468098477547
      ],
      [
        "▁instrumen",
        -10.113784192668255
      ],
      [
        "▁diminati",
        -10.113883137885844
      ],
      [
        "▁gereja",
        -10.11447175858668
      ],
      [
        "▁sibuk",
        -10.115667175959306
      ],
      [
        "tama",
        -10.116418072626908
      ],
      [
        "▁inter",
        -10.117450316881117
      ],
      [
        "▁hemat",
        -10.117643240867688
      ],
      [
        "ris",
        -10.117797744437068
      ],
      [
        "▁putri",
        -10.118136488989393
      ],
      [
        "ika",
        -10.119167290786711
      ],
      [
        "peng",
        -10.119383492593675
      ],
      [
        "rat",
        -10.119938745400036
      ],
      [
        "ping",
        -10.12015949730464
      ],
      [
        "▁impian",
        -10.1203385598371
      ],
      [
        "▁dikonsumsi",
        -10.120533339382762
      ],
      [
        "kar",
        -10.120745744582903
      ],
      [
        "▁dikirim",
        -10.121002310775316
      ],
      [
        "▁barcelona",
        -10.121893831094606
      ],
      [
        "▁peta",
        -10.122672320935264
      ],
      [
        "▁pihaknya",
        -10.122787403866372
      ],
      [
        "▁menderita",
        -10.12320170908718
      ],
      [
        "▁beras",
        -10.123546802919469
      ],
      [
        "▁rumus",
        -10.124586078812657
      ],
      [
        "▁bulu",
        -10.125108594515575
      ],
      [
        "▁angin",
        -10.126427253577424
      ],
      [
        "▁mempromosikan",
        -10.127341446779557
      ],
      [
        "tel",
        -10.128233349725738
      ],
      [
        "▁asus",
        -10.128691055505222
      ],
      [
        "▁jokowi",
        -10.130494597498796
      ],
      [
        "▁kepuasan",
        -10.131931770192352
      ],
      [
        "ket",
        -10.133258617802149
      ],
      [
        "▁tawarkan",
        -10.134249310475086
      ],
      [
        "▁cairan",
        -10.13427327293522
      ],
      [
        "▁inspirasi",
        -10.135312172118244
      ],
      [
        "produk",
        -10.13614797153732
      ],
      [
        "▁iya",
        -10.137400870373682
      ],
      [
        "▁final",
        -10.13744060203618
      ],
      [
        "▁masker",
        -10.139461680934092
      ],
      [
        "▁mendownload",
        -10.139697754634346
      ],
      [
        "▁penanganan",
        -10.140315741739956
      ],
      [
        "▁kehamilan",
        -10.140684927993847
      ],
      [
        "jika",
        -10.14117067599884
      ],
      [
        "▁baccarat",
        -10.141433412739929
      ],
      [
        "▁seolah",
        -10.141476266555284
      ],
      [
        "jadi",
        -10.141577765012208
      ],
      [
        "ensi",
        -10.142795969971024
      ],
      [
        "▁mer",
        -10.143500911341752
      ],
      [
        "we",
        -10.143715445682004
      ],
      [
        "▁will",
        -10.144027158249555
      ],
      [
        "▁bau",
        -10.14436834096589
      ],
      [
        "▁tidaklah",
        -10.145064839927032
      ],
      [
        "▁semarang",
        -10.145114849340358
      ],
      [
        "indo",
        -10.145178230858775
      ],
      [
        "▁dinilai",
        -10.145434602954689
      ],
      [
        "▁rasakan",
        -10.145560899467217
      ],
      [
        "▁berlatih",
        -10.14731699696157
      ],
      [
        "dengan",
        -10.148183337476206
      ],
      [
        "▁cina",
        -10.148217286986588
      ],
      [
        "▁kecantikan",
        -10.149434335081295
      ],
      [
        "tur",
        -10.150044508437103
      ],
      [
        "▁dompet",
        -10.150365467852842
      ],
      [
        "main",
        -10.150669485339728
      ],
      [
        "karena",
        -10.151970204747856
      ],
      [
        "data",
        -10.152018813771765
      ],
      [
        "▁du",
        -10.152119929115054
      ],
      [
        "▁jujur",
        -10.152171159884563
      ],
      [
        "▁xiaomi",
        -10.15228320435797
      ],
      [
        "▁dadu",
        -10.152438744817172
      ],
      [
        "tri",
        -10.15287471064048
      ],
      [
        "news",
        -10.153559121260145
      ],
      [
        "▁sembuh",
        -10.15374133531946
      ],
      [
        "▁dewa",
        -10.155008678129525
      ],
      [
        "▁reputasi",
        -10.155337268482151
      ],
      [
        "▁petani",
        -10.156215691577607
      ],
      [
        "▁pemakaian",
        -10.156397546229384
      ],
      [
        "▁ab",
        -10.156653185469509
      ],
      [
        "▁gue",
        -10.15678899283071
      ],
      [
        "▁peroleh",
        -10.157103290288545
      ],
      [
        "▁gi",
        -10.157920519523918
      ],
      [
        "▁kerjasama",
        -10.15795450763251
      ],
      [
        "▁corona",
        -10.15879345066902
      ],
      [
        "ning",
        -10.159312333219338
      ],
      [
        "▁sekitarnya",
        -10.159366584009788
      ],
      [
        "▁membuang",
        -10.159479674717462
      ],
      [
        "▁siapapun",
        -10.159565657868768
      ],
      [
        "▁mewujudkan",
        -10.159691016719412
      ],
      [
        "▁sh",
        -10.16014522490594
      ],
      [
        "▁memaksimalkan",
        -10.160989734272365
      ],
      [
        "▁wifi",
        -10.162357257814673
      ],
      [
        "▁kalimat",
        -10.162584553571136
      ],
      [
        "▁tunggal",
        -10.162590796210054
      ],
      [
        "▁persis",
        -10.162940779070963
      ],
      [
        "▁kriteria",
        -10.16369418393978
      ],
      [
        "▁sabar",
        -10.165311335856185
      ],
      [
        "▁telkomsel",
        -10.165496514686827
      ],
      [
        "ologi",
        -10.166735926238209
      ],
      [
        "▁alih",
        -10.166767791600035
      ],
      [
        "tif",
        -10.167289377262836
      ],
      [
        "▁mengakui",
        -10.16734607095063
      ],
      [
        "▁chart",
        -10.168120399628553
      ],
      [
        "▁simple",
        -10.169404032562472
      ],
      [
        "barang",
        -10.169738840103536
      ],
      [
        "▁destinasi",
        -10.171448057846092
      ],
      [
        "▁memprediksi",
        -10.17336251262542
      ],
      [
        "▁gan",
        -10.173545326454944
      ],
      [
        "▁santai",
        -10.17367905254438
      ],
      [
        "ikan",
        -10.174206706999104
      ],
      [
        "▁cetak",
        -10.174361746408264
      ],
      [
        "▁bertindak",
        -10.17451502934533
      ],
      [
        "▁visi",
        -10.174949712462732
      ],
      [
        "▁bagikan",
        -10.176006380681802
      ],
      [
        "▁bahaya",
        -10.176251766991836
      ],
      [
        "▁tujuannya",
        -10.17643885964628
      ],
      [
        "▁gulungan",
        -10.176537115940866
      ],
      [
        "▁sore",
        -10.176873756131116
      ],
      [
        "▁kelemahan",
        -10.177223711263144
      ],
      [
        "▁design",
        -10.178248666629797
      ],
      [
        "▁skala",
        -10.179067400108137
      ],
      [
        "▁klaim",
        -10.179116443519824
      ],
      [
        "▁memicu",
        -10.179496883292517
      ],
      [
        "▁work",
        -10.179956102749196
      ],
      [
        "▁selaku",
        -10.179969905169962
      ],
      [
        "▁triliun",
        -10.18030012801819
      ],
      [
        "▁engkau",
        -10.18110646692264
      ],
      [
        "▁membedakan",
        -10.181574246130475
      ],
      [
        "▁maksud",
        -10.18217230534193
      ],
      [
        "▁komitmen",
        -10.182707228201169
      ],
      [
        "ver",
        -10.183149235582722
      ],
      [
        "▁gb",
        -10.183175027308836
      ],
      [
        "▁italia",
        -10.183458066536462
      ],
      [
        "▁cm",
        -10.183574059715152
      ],
      [
        "▁musuh",
        -10.18357961761076
      ],
      [
        "▁red",
        -10.183719214810528
      ],
      [
        "dis",
        -10.18374513992383
      ],
      [
        "par",
        -10.183891105894032
      ],
      [
        "▁rilis",
        -10.184355939694452
      ],
      [
        "▁pp",
        -10.184420164511716
      ],
      [
        "▁termurah",
        -10.18529090578723
      ],
      [
        "▁hd",
        -10.185488367683632
      ],
      [
        "▁po",
        -10.185503235260777
      ],
      [
        "▁keempat",
        -10.185769433855716
      ],
      [
        "▁rusia",
        -10.18630833423818
      ],
      [
        "▁penilaian",
        -10.186869346444302
      ],
      [
        "▁konfirmasi",
        -10.18724936130783
      ],
      [
        "▁tagged",
        -10.187763036539938
      ],
      [
        "▁patut",
        -10.187928727589336
      ],
      [
        "meng",
        -10.18832451158136
      ],
      [
        "▁legal",
        -10.188411316737408
      ],
      [
        "▁pegawai",
        -10.188837790882944
      ],
      [
        "▁bin",
        -10.188933611702286
      ],
      [
        "ity",
        -10.18919529732653
      ],
      [
        "▁harap",
        -10.189217922696606
      ],
      [
        "sis",
        -10.18951711836587
      ],
      [
        "▁mengangkat",
        -10.19095390775717
      ],
      [
        "▁ibadah",
        -10.19137857938053
      ],
      [
        "▁black",
        -10.192852823520424
      ],
      [
        "obatan",
        -10.19308486956431
      ],
      [
        "▁administrasi",
        -10.193729240581138
      ],
      [
        "▁terpisah",
        -10.194017965604989
      ],
      [
        "▁printer",
        -10.194296569484433
      ],
      [
        "▁selengkapnya",
        -10.19430543069282
      ],
      [
        "▁kampung",
        -10.194406584100584
      ],
      [
        "▁diskusi",
        -10.194521945258762
      ],
      [
        "▁bahas",
        -10.195090649210927
      ],
      [
        "▁putra",
        -10.195273004163152
      ],
      [
        "▁perbankan",
        -10.19544751843793
      ],
      [
        "pem",
        -10.195651981197576
      ],
      [
        "tek",
        -10.195659379731088
      ],
      [
        "▁sinar",
        -10.1962210236381
      ],
      [
        "▁kas",
        -10.19629547098462
      ],
      [
        "▁rak",
        -10.196900640209307
      ],
      [
        "▁mendengarkan",
        -10.197931780755871
      ],
      [
        "itu",
        -10.19806570365365
      ],
      [
        "▁bandara",
        -10.198272519136586
      ],
      [
        "▁sipilis",
        -10.198410124612325
      ],
      [
        "▁kenyataan",
        -10.198522167938997
      ],
      [
        "▁dibagikan",
        -10.198555754299573
      ],
      [
        "▁pemberian",
        -10.198991280429482
      ],
      [
        "▁lucu",
        -10.199052245655988
      ],
      [
        "▁mega",
        -10.1993217805491
      ],
      [
        "tis",
        -10.199395791382443
      ],
      [
        "▁situ",
        -10.199433163404986
      ],
      [
        "▁hongkong",
        -10.20014544956789
      ],
      [
        "▁penumpang",
        -10.200515034872073
      ],
      [
        "▁capsa",
        -10.200857158376166
      ],
      [
        "▁pebisnis",
        -10.201155096948344
      ],
      [
        "▁kampanye",
        -10.201753400957331
      ],
      [
        "kira",
        -10.20182157726186
      ],
      [
        "aan",
        -10.202526901920548
      ],
      [
        "▁lapisan",
        -10.203719356724465
      ],
      [
        "▁papua",
        -10.203748830691785
      ],
      [
        "▁perjuangan",
        -10.2041426909222
      ],
      [
        "▁lantaran",
        -10.204656907911822
      ],
      [
        "▁nominal",
        -10.20563821885496
      ],
      [
        "▁karenanya",
        -10.206021309000214
      ],
      [
        "isme",
        -10.206550863079343
      ],
      [
        "▁spread",
        -10.206570691313132
      ],
      [
        "nan",
        -10.207400579027198
      ],
      [
        "ren",
        -10.207787263429529
      ],
      [
        "▁profesi",
        -10.207946546737318
      ],
      [
        "▁kesenangan",
        -10.208123734076496
      ],
      [
        "▁kewajiban",
        -10.208359201483477
      ],
      [
        "▁kekayaan",
        -10.20873290392657
      ],
      [
        "▁karir",
        -10.20905274481544
      ],
      [
        "▁verifikasi",
        -10.209269767969396
      ],
      [
        "▁terdengar",
        -10.209704698868933
      ],
      [
        "▁merugikan",
        -10.211012273053097
      ],
      [
        "▁beri",
        -10.21117121740974
      ],
      [
        "▁setuju",
        -10.211329357500686
      ],
      [
        "sta",
        -10.212913118172102
      ],
      [
        "▁tahapan",
        -10.213679317061324
      ],
      [
        "▁pahami",
        -10.214059991624442
      ],
      [
        "gel",
        -10.214452810006897
      ],
      [
        "▁arus",
        -10.214553686148667
      ],
      [
        "▁hormon",
        -10.215227703775026
      ],
      [
        "▁terkini",
        -10.215475536967563
      ],
      [
        "▁gen",
        -10.215729655042946
      ],
      [
        "uan",
        -10.216520876980368
      ],
      [
        "▁membiarkan",
        -10.216967815221947
      ],
      [
        "▁diabetes",
        -10.217015130480616
      ],
      [
        "ram",
        -10.217648773849955
      ],
      [
        "▁beredar",
        -10.218250329034834
      ],
      [
        "▁tni",
        -10.218885445235076
      ],
      [
        "▁kebenaran",
        -10.218966392454996
      ],
      [
        "▁menyembuhkan",
        -10.219171510209565
      ],
      [
        "▁yu",
        -10.21974980345369
      ],
      [
        "lia",
        -10.219859721100862
      ],
      [
        "▁lowongan",
        -10.221449965769574
      ],
      [
        "▁paypal",
        -10.222184719848238
      ],
      [
        "▁disiplin",
        -10.222303516654286
      ],
      [
        "▁bijak",
        -10.222421440979703
      ],
      [
        "▁dirasakan",
        -10.222527455184796
      ],
      [
        "set",
        -10.223342957680687
      ],
      [
        "▁protein",
        -10.224097696829284
      ],
      [
        "▁jawabannya",
        -10.224967064088956
      ],
      [
        "▁maya",
        -10.225015673475054
      ],
      [
        "▁team",
        -10.226991910799889
      ],
      [
        "▁kemasan",
        -10.22717457700806
      ],
      [
        "res",
        -10.227825907239174
      ],
      [
        "▁acak",
        -10.227850677125286
      ],
      [
        "▁mengklaim",
        -10.227890346406342
      ],
      [
        "▁type",
        -10.228162279347895
      ],
      [
        "dalam",
        -10.228619052547222
      ],
      [
        "▁off",
        -10.22890301796482
      ],
      [
        "▁las",
        -10.229247613096309
      ],
      [
        "▁kesepakatan",
        -10.23023745946436
      ],
      [
        "▁terbiasa",
        -10.230583125276455
      ],
      [
        "▁batik",
        -10.230711063526147
      ],
      [
        "▁fire",
        -10.231164697593766
      ],
      [
        "▁jelasnya",
        -10.231244909516931
      ],
      [
        "▁bawa",
        -10.231337817777346
      ],
      [
        "▁penonton",
        -10.231449104506694
      ],
      [
        "▁meluncurkan",
        -10.232304854864184
      ],
      [
        "▁mencatat",
        -10.232393391861724
      ],
      [
        "▁konsultasi",
        -10.23270751116412
      ],
      [
        "▁sy",
        -10.232820047537848
      ],
      [
        "▁smart",
        -10.233326839730944
      ],
      [
        "▁bencana",
        -10.234257299811656
      ],
      [
        "▁loh",
        -10.234419648320312
      ],
      [
        "▁bulanan",
        -10.234614430515505
      ],
      [
        "▁ujian",
        -10.235202572464688
      ],
      [
        "▁doa",
        -10.235822141945592
      ],
      [
        "▁channel",
        -10.235898165135332
      ],
      [
        "▁ben",
        -10.23664131416828
      ],
      [
        "▁mendaftarkan",
        -10.236724890124355
      ],
      [
        "▁katakan",
        -10.236773860268682
      ],
      [
        "▁ru",
        -10.2368483763275
      ],
      [
        "bertahun",
        -10.239690939138882
      ],
      [
        "▁bot",
        -10.24019362272285
      ],
      [
        "win",
        -10.240282619411776
      ],
      [
        "▁ditutup",
        -10.240611174539405
      ],
      [
        "▁sk",
        -10.241010245919894
      ],
      [
        "▁perlahan",
        -10.241239082439092
      ],
      [
        "▁san",
        -10.242128758102597
      ],
      [
        "▁zona",
        -10.242448078958777
      ],
      [
        "▁bersenang",
        -10.242757266438204
      ],
      [
        "▁install",
        -10.24336174688451
      ],
      [
        "▁dewan",
        -10.244788504004722
      ],
      [
        "▁developer",
        -10.24484090100978
      ],
      [
        "▁kadar",
        -10.245110734617912
      ],
      [
        "▁artis",
        -10.245256093790818
      ],
      [
        "▁ragam",
        -10.246444902813996
      ],
      [
        "▁spesial",
        -10.246816279348826
      ],
      [
        "▁abad",
        -10.247125043563091
      ],
      [
        "▁day",
        -10.247337428604189
      ],
      [
        "▁pesta",
        -10.247479600952078
      ],
      [
        "▁visual",
        -10.247705514463838
      ],
      [
[...]
